3c008000
bbf80000
3ab00000
bbc30000
bc668000
bb600000
3ba30000
ba400000
3ba20000
3c060000
3baf0000
39400000
3c518000
ba600000
bbe00000
bbcd0000
bbdc0000
bb620000
bbcb0000
3c040000
bbad0000
bbf10000
3b5c0000
bc160000
bb740000
bb800000
bc3b8000
3b780000
39b00000
bb930000
3c2e0000
ba400000
ba880000
bb890000
3be00000
3bd10000
bd1d6000
bd07a000
bd662000
bc600000
bbfe0000
bd0d0000
bd458000
bdcb8000
bdea2000
bda0c000
be046800
bd866000
bc8b0000
bcb94000
baec0000
3c790000
bbdc0000
3b2e0000
bbf40000
3b780000
3b640000
bb440000
bb850000
b9600000
3bb90000
bb300000
bc4f8000
bd7d4000
bd1a2000
3e03e000
bde1c000
3c998000
3e097800
be05b000
bcbf0000
3c2b8000
bda32000
be319000
be509000
beb01400
bd63e000
bc3b0000
bd2b2000
bc308000
3cdf4000
3cc2c000
3ab80000
3c3d0000
bb400000
3b7a0000
bc350000
3c6c8000
3b9f0000
3bd80000
bbc00000
3cd90000
3dda4000
3e78f000
bcd14000
3e893000
bd4a8000
bcc6c000
be118000
3bc60000
bd861000
3c974000
bd5a6000
bce20000
bcec4000
bdcb1000
3cb94000
3b420000
3d20c000
3c358000
3a080000
b9a00000
bc480000
bc2b0000
3c2d8000
bc2f0000
bd740000
3d42e000
3c88c000
be236800
bc728000
3d004000
3e9f4000
baf80000
3c228000
bca70000
bb500000
be145800
3e51a800
3d430000
3d732000
3cd80000
3c9d4000
3bda0000
3e415000
bd0f2000
bd8a4000
3c090000
bc790000
bc660000
3b740000
3c448000
3c008000
3ca9c000
bcfd0000
bda67000
3bf70000
bbc80000
3dce2000
bc7e0000
bd178000
3e6b2800
3da11000
3d44a000
bd5de000
bd21c000
3d602000
3d182000
bd41e000
bcbd4000
3e0db800
3cba4000
bc660000
3d446000
be0ca000
bd9f8000
bd8f6000
bcf54000
3bd90000
bba50000
bd967000
bd3dc000
bce68000
be527000
bd97f000
3d917000
bb580000
3e586800
bd8d6000
3e410000
bd1ce000
bd7ec000
3ed9f800
be5d3000
3db9e000
bbde0000
bd080000
3d246000
bdaa0000
be895400
bcdd0000
bdf14000
bde61000
bd12c000
b9a00000
bc3e0000
3a600000
bb560000
bd476000
bd69c000
be116800
3ddb3000
3e124000
be6e8800
bc3d8000
bd7d6000
bc860000
3da9b000
bc4f0000
3d8c1000
be18f800
bb4e0000
3d823000
3d43a000
be0d8800
3d7da000
be00a800
3be10000
3e4c8800
bd845000
3c7b0000
3db71000
3da81000
b9000000
bb700000
3be90000
bc834000
bba50000
bcb50000
3da0e000
3c940000
3c9c8000
bd288000
3ded6000
3df7d000
3de19000
bb970000
bd508000
3e899800
bbf40000
bd09e000
3db6d000
3d41a000
3bcf0000
3df6c000
3d2a0000
bc6b0000
3dfb7000
be0ef000
bd2d6000
bb0c0000
bb580000
bb4e0000
bbb40000
3cabc000
3dead000
bdec6000
3e5d3800
3d95a000
be634800
bddba000
bcd4c000
bdbfd000
bca3c000
3eb1fc00
be345000
be1c7800
3d7b8000
3d8f3000
bd871000
3ccc0000
3b5c0000
bd00c000
bdc0c000
3e7cd000
bd81d000
be19a000
be468800
bb2a0000
3deb7000
3c0a0000
3c580000
3b500000
bd630000
bea13800
3e326000
3dc5c000
bc350000
3e913000
3ad80000
3e79b000
be7e3800
bd490000
be8a5800
bdb43000
be2b5800
3d86e000
3d8d8000
3d00e000
bd374000
bdd7d000
bdf80000
be5a3000
be0b6800
3dd0a000
bcfe0000
3d32a000
3d12e000
bbf90000
bb200000
bd77e000
be08b800
be971c00
bb520000
3e136000
3e397000
3e7c8000
3ddf3000
bcf94000
3dcaf000
be258000
be553000
bdd02000
3bf90000
bdcfa000
be344000
be430800
be128000
3d56c000
bda2b000
bd430000
bd330000
3d4bc000
bd0ba000
be11f800
bbfb0000
39f00000
bbda0000
bd53e000
be422000
be96fc00
beb6d400
be19c800
be93ec00
bed62000
bf602400
bf573e00
bf60b200
becf1400
bee35800
be643800
bd338000
bdc95000
ba000000
3e3fc800
be067800
3dc0a000
3ce54000
bd314000
be7f7000
3c760000
3d931000
3d290000
bb9f0000
0
ba700000
bc5e0000
be1c6000
be879c00
bf1f6200
bf6f6c00
bf800000
bf6e1800
bf103600
3e759000
3d0f6000
3e691000
3e413000
bcd4c000
bda2e000
3d983000
be107800
be3cd000
bd432000
bde78000
3c918000
3cad4000
3dfbc000
3ea71800
3e820400
3e674800
3cb60000
3bc80000
3bee0000
3c740000
bd81e000
be47a000
be8b8800
be357000
bda8f000
bd64c000
3e46a000
3dc1f000
3ce10000
3e4f9000
3ca24000
3de7e000
bdcef000
3e2fb800
bd858000
3e74f800
3de34000
bda62000
bc5e0000
be06f000
bb440000
3e3ad800
bdec3000
3e01f800
39a00000
bbc40000
bb9a0000
3d324000
3b860000
3da36000
be099000
3dde7000
3d8fc000
3e0a2000
3e5a3800
3d4c0000
3df87000
3c2c0000
3d9d6000
bda8b000
3d933000
bdb63000
bd7e0000
bdadf000
bd38e000
be6c9000
3d818000
3d542000
3dc3e000
3e082000
3d5be000
3d8f7000
3d536000
3bf70000
bbf80000
3d492000
3d983000
3ca14000
bd987000
3e585000
3b810000
bd6d6000
3e090800
3ded3000
3dbc7000
3e29f000
3e695000
3cf90000
bc6c0000
3db3f000
3d909000
bd34c000
3c210000
be086800
3c198000
bdb98000
3ef35000
3d9fc000
3e75f800
3e817000
3e19f800
3bb40000
3c2e8000
3c4a8000
3d172000
3e50c800
3dc7f000
3d024000
bd89b000
3e0d0000
bd53c000
3de1d000
3c830000
3d4f4000
3e277000
3da11000
3db26000
bda72000
3c650000
bd98b000
3d939000
3db1a000
3dda5000
bdc90000
3c960000
bd838000
3e29b800
3d604000
3d5e6000
3bd90000
bbc40000
3b1a0000
3da54000
3e391800
3d9e3000
3d07a000
3dd55000
bc8fc000
3cb78000
3def4000
bd3c2000
3cabc000
3de40000
bd929000
be489000
3de62000
bdc03000
bca7c000
be22e000
be82ec00
3cc00000
bda05000
be237800
3ecd2000
3e9b3400
3e07f000
3dd5f000
bb2e0000
bc954000
bc91c000
3d888000
bde2a000
3dae4000
bdd66000
3dec9000
3cf40000
3d62e000
bd80d000
3e4d0800
3db8b000
3e41b800
bcfe8000
3bc50000
bdaac000
3dd89000
be414800
3e78d800
bbd00000
bce00000
3c428000
3ebe0400
3da66000
3e300000
3d853000
3c814000
bba60000
bd92f000
bd1a4000
3eea5800
bd59a000
3dd6b000
3dc3f000
bdcea000
3e284000
3c270000
3e4dd000
3cbf0000
3d9fc000
be038000
3e3e3000
be1a2000
3b9a0000
bd966000
3c4d0000
bde0d000
be47a000
3d8dd000
bd714000
be231000
3e1dc800
3e54d000
3ca20000
bb8c0000
bb700000
3b8c0000
3d37a000
3ea82400
be726000
3e301000
bdb92000
3d398000
bdc87000
3df9b000
3d3ee000
be1ac800
3dace000
bd62e000
bdf65000
bdea7000
3d970000
bd64e000
3e3db000
3cda0000
3d41a000
3d536000
be4af000
3ccfc000
3ebb6400
3e1a7000
3ca60000
bb9e0000
ba380000
3b840000
3d412000
3d801000
be62c000
3e4f5800
be549800
bdcae000
3d2e2000
be99c400
3d877000
bc600000
bdc32000
bd2be000
3bb20000
bdc1b000
be07c800
bd562000
3df03000
3db00000
3e9c2000
3ea82000
be5a5000
bd1f0000
3ded3000
bd10e000
bd0ee000
bb5c0000
3b020000
3ba30000
bbd00000
3cadc000
be4c3800
3b9f0000
3de59000
3dbb8000
3e0c5000
3d096000
bda44000
3d734000
bbbb0000
3d6d8000
3dabf000
bd991000
bde17000
3cfec000
3d1d8000
bc948000
be86d400
3c178000
3e967c00
3dc58000
3a200000
bdd4a000
bbe40000
3bc30000
3c020000
baf40000
bc0e8000
bc5f8000
3d3ba000
3d93b000
bad00000
be9e4000
3e514800
bdaec000
be10f000
3deb8000
bd914000
bd841000
bda26000
3c8a8000
bdd4d000
be82dc00
bdc77000
3e51a800
bd8a6000
3e16b000
3d0fa000
bcfe0000
3e0cd000
3de45000
3d2ac000
bb600000
3b2a0000
3b8e0000
bb1a0000
3c1c8000
3ddcb000
3d080000
3db90000
be116000
be824c00
be089800
3c8cc000
be1dc800
bcc6c000
bd9c0000
be13f800
3ed3f000
3df83000
3d700000
be097800
be09c000
bda8c000
bc9f0000
bd340000
bdc2f000
bcda8000
3d1aa000
3d2d8000
ba280000
3bed0000
bc230000
3b440000
3bd10000
3b870000
bdddc000
bdcf0000
3c350000
3be70000
3e33f800
3e2da000
3de32000
3d860000
3d83a000
3db6f000
bd380000
bd17a000
3cf88000
3d382000
3d074000
bd69e000
bdc25000
bcf98000
b9900000
bbbf0000
bc178000
b8000000
3aec0000
3c3d8000
3b7a0000
bb890000
bc120000
bbe40000
ba840000
3c3c0000
b8c00000
bc1d0000
3baf0000
3c908000
3c5b8000
3b440000
bbed0000
bb760000
baf80000
3bfd0000
3be70000
3bab0000
3bac0000
bd162000
bc8ec000
bcdb0000
bbca0000
3ba10000
bb1e0000
3beb0000
b9c00000
bc040000
bbca0000
3b7e0000
3bdb0000
bab00000
bbb90000
bb180000
bbcd0000
bbeb0000
3b580000
3c518000
bbc00000
3c578000
3b4c0000
3a280000
bb8f0000
3b680000
bba80000
bbb10000
bba90000
3c450000
3b680000
3afc0000
bacc0000
bbb40000
bb120000
3bf50000
ba580000
bc0c8000
bbe30000
bac80000
3b280000
3c258000
3ba60000
3c468000
3b1e0000
baa40000
3b740000
bc4e8000
bb020000
3bd90000
3bed0000
3b5c0000
3b8d0000
3b820000
3b8a0000
bba40000
3ab00000
3c180000
bb460000
bb850000
3b890000
3c0d8000
3c130000
bba50000
3bf60000
bb120000
bb5a0000
0
3c178000
3bab0000
3b660000
bc560000
bc960000
bcab4000
3d2f6000
3c340000
3d5de000
3d2cc000
bd833000
3cc2c000
3b7c0000
bce00000
bc5a8000
3d050000
3d31e000
3d804000
3d1fa000
3c7f0000
3c6b0000
3c158000
3baa0000
3c510000
bb060000
bb520000
bc348000
3c230000
badc0000
3c200000
3bac0000
bc018000
3d064000
3d8e8000
3e178000
3d71e000
3df68000
3c998000
bcadc000
bd378000
3d290000
3e44f800
3cbe0000
3db0c000
3e89ac00
3e295000
bdc06000
bdfb4000
bd934000
bcc74000
3c748000
bbbc0000
3b320000
bbf10000
bc460000
3be80000
bbf10000
bbf50000
3d1f4000
bd63c000
bd5ae000
bd222000
3e7de800
3dd90000
3e643800
3e860800
bd4ec000
3e6af000
3e2f3000
3c638000
3d338000
bdf88000
be74c000
3d8a9000
be622800
be647800
bd506000
3d2fe000
3e026800
3b830000
bcae4000
bbed0000
3a400000
bc2b0000
3d122000
3dcac000
3e5f3800
3df15000
3d993000
be7cb800
bd984000
3c630000
3dde6000
bd894000
3d9fa000
3d9db000
3e268000
3b930000
3df87000
3db30000
3dad0000
3e4a3800
3ddce000
3e74e000
be0bd000
be1d5800
3e20e800
3dcb8000
bcf18000
bbcd0000
bb2e0000
3d4d4000
3da3c000
3d8f9000
be2b6800
be56f000
be0a9800
3d8a5000
bdf53000
3e5dc000
bcbd0000
3e05b800
b9d00000
bcd50000
be092000
3d69e000
bdbd8000
bd1b6000
be11f000
3e06b000
be702000
bd93a000
3e1dd800
bd31e000
3db59000
baf80000
bb1a0000
bb640000
bc854000
bca58000
be685800
bb8f0000
3dabc000
bdd71000
bc348000
3ddfa000
3ce80000
bdfd7000
3e56c800
3b8a0000
bcb30000
bcd00000
3e4fa800
3ca04000
bd42c000
3e294000
3c478000
bda5f000
3e436000
3deba000
3d4d2000
bbd70000
bd951000
bc7f0000
bb800000
3b160000
bc458000
be0b1000
bdd6f000
3ea26c00
bd1ee000
3e2fd800
bd886000
be225800
bd3b0000
3e4ff000
bece1c00
3e04f000
3e094000
3d9b5000
bd18e000
3d170000
bcc90000
be13d000
3e399000
be05d800
bd2a6000
3e52d000
3e12a000
3dc3a000
bc618000
3c994000
bc97c000
3c050000
3bb00000
3d330000
bc050000
be052800
bd296000
be69f800
3da88000
3c8a8000
bbe60000
3d4d8000
3de36000
bce30000
be193800
bc060000
3d760000
bc9ac000
bd124000
bd9f5000
bdac9000
3e173800
bda8e000
be0fa800
3ececc00
3daec000
3eb65400
3d952000
bc620000
bbe30000
bbc90000
3bfd0000
bd7c0000
3c2e8000
bdd41000
3e80bc00
bce90000
3e60a800
be67b000
3dcd7000
bd4c6000
bb9d0000
be0ec000
bd885000
be6ee000
3c5e0000
3d532000
3e1aa800
3cb40000
bcab0000
3d992000
bdb55000
3e7bc000
3d376000
bc4e0000
3d6d8000
bb540000
bbf90000
bc92c000
bdaa3000
be121000
3d034000
3e169000
3e363800
bea11000
be3c9000
bca80000
bde5d000
3e194000
bdd29000
3d974000
bdba0000
3d5dc000
bdfe3000
be565800
be114000
bd8df000
bd99a000
be1c3800
be5d0000
bd4d2000
bb400000
3d692000
3d877000
3b950000
bbc00000
bc828000
bd284000
3e0e5800
bce64000
bdcd7000
3e0ee800
3d934000
3e423000
3d204000
be2c3800
bdccd000
bcbd0000
3e0c2000
bdf80000
bec9b000
bda08000
3d76c000
be76f000
3d8b0000
be199000
3e908000
3e1e5000
3d292000
bd602000
3db2a000
3e094000
3c048000
bb6a0000
bb1e0000
bcc84000
3e1fa000
3bf30000
3da14000
bca58000
bdf1c000
be8c0000
3e252800
be057000
bb580000
3d2d6000
3d3fe000
3d248000
bda94000
3da7c000
bcdb8000
3dae4000
bdd06000
3e61b000
be67a800
3c420000
3c468000
bd04a000
3da3d000
3e0bb800
bb830000
b9c00000
bbb80000
bd336000
bd10a000
3df8c000
beb27800
be18b800
bd8f3000
be49d800
3d44a000
be24f800
3ddc1000
3d9c9000
3db30000
3e0be000
be000000
beb85000
3dfe1000
bd082000
bdf35000
be5aa000
3dc30000
be879800
bdb01000
be432000
bd356000
3c800000
3b220000
3bc30000
bb060000
bd1d0000
bdf37000
be27d800
3d730000
3dd1c000
3e83ec00
3d392000
3ce8c000
bd512000
3cfe0000
3ddc7000
bc984000
3e01c800
3d927000
3db19000
be1f3000
bdb0c000
bebee400
3d5b8000
3d0d0000
be92f800
3d540000
bdbd1000
bdca0000
badc0000
3c000000
3a100000
bad40000
bc048000
bd07c000
bca44000
bd3ba000
be585000
bc538000
be27d000
3dd65000
bcb94000
3d12c000
3ddd9000
3d472000
bd5de000
be709000
bd89e000
bd442000
be1fd000
3dab1000
be2eb800
be2a1000
bd86a000
3dfe7000
be629800
3d374000
3d334000
3c820000
39400000
bc288000
3c6b8000
bc308000
bd1ba000
3cce8000
3d174000
bdf0b000
3e37f800
bd222000
3bb80000
bc848000
3d0a2000
3d66c000
3e355800
be158000
be363800
3d3c6000
be036000
bd502000
bba80000
be16f800
bd4c2000
3d8ac000
bd454000
3d9aa000
3cb64000
3a780000
bbc60000
3c418000
3c3d0000
be004800
be568000
3cb44000
be04e800
be4b5000
bd8ea000
be659000
3ccb4000
3c428000
3e5f9000
be58c800
bdbad000
bba30000
3de42000
bdeeb000
bc860000
3e30b000
3e181000
bd81c000
3e192000
bdb37000
bde5b000
3d51a000
3b260000
3cd6c000
bac00000
bbd00000
3c348000
bddbf000
bde81000
3e0dd000
bdb3f000
3e196800
3d2b2000
be6be800
3e02f800
bf0b7000
3a280000
3e557000
bdd22000
be342800
3d558000
3dc65000
3e47a800
bdb6a000
bd9c0000
bd3c8000
3e9d4800
3e109000
bdf56000
3d094000
3c050000
3c620000
bb0c0000
3a100000
bbad0000
3ca30000
3c8d0000
3e881400
3efd8800
3d900000
3d686000
3e498800
3c820000
3e0d9800
bc118000
3d23a000
bd94a000
3e958800
3cf30000
3d1d4000
3e5b6000
3e8d1400
3f0ae600
3e946400
3e6b8000
3e75f800
be00b000
3c930000
3c168000
bbbf0000
3bd30000
3b5a0000
3a700000
3d926000
3eaee800
bdf52000
3e89f400
bc220000
3cc4c000
3e309000
3dd4d000
3dccb000
be013000
3e473800
3e86fc00
3dd8a000
3e5e0000
3dc52000
3dd02000
bd626000
3d184000
3da4b000
3ebf7000
3eafc000
3cab8000
3d41a000
3ccc4000
3a680000
bb700000
3bdb0000
3ce78000
3e0f5000
3eb8d800
3e064800
bdb3c000
3edadc00
3df1c000
3e163800
3d1b6000
3e92f800
3e2a9800
3e192000
3d90c000
bc038000
3de81000
3e116000
3e1ee000
3d33a000
3da46000
3dab2000
bddf5000
3cea8000
3d45e000
3d932000
3b720000
bbc40000
3c090000
3c1e8000
3ce18000
3e74d800
3e815000
3c8bc000
bdf4b000
3e377800
bb1a0000
3e507800
3e2e1800
3e47a000
3d5f2000
3eabac00
3e259800
3e853800
3e5dc800
3d8ea000
3e9a9400
3e32c800
3d7c4000
3d959000
3e6bb800
3e436000
3e7e7000
3d803000
bc944000
3c4b0000
3bdb0000
bb460000
3cce0000
3e0f0000
3d819000
be92e400
3e1f1000
3d4ca000
3de30000
bd2ea000
3cd2c000
3d97a000
3e61d800
bcdf0000
3e615000
3dffc000
3bf80000
3cbfc000
3e967000
3e02f800
bd8b3000
bae00000
3e29e000
3cbcc000
3e4fb000
3df07000
3d278000
bad00000
3c068000
3b120000
3b1a0000
3b140000
bd901000
bce70000
3e18f800
bcff8000
3df0d000
bdba3000
3e569800
3c5b8000
3d182000
3d64c000
bd2fc000
3e1b1000
3e7e8800
3e8ce400
3d991000
3dae7000
3df08000
3c8e0000
bd9ef000
bd58e000
3d22e000
3d0fe000
3d170000
ba180000
bc2e8000
bb380000
bbe40000
bbb20000
bc360000
3cdd8000
3c070000
3cef4000
bcbe8000
be8ed400
3e532000
3e1b5000
3e0df000
bced0000
beaaf800
bd97b000
3e67d000
be446800
3e74d800
3d028000
3ceb8000
bd092000
bce70000
bbf50000
bc3f0000
b9800000
bc250000
bbf20000
bb940000
bc660000
3c0b0000
bc118000
3ab00000
bb320000
3c0f8000
bb840000
bb180000
bafc0000
3c648000
3c150000
bb920000
bb100000
bc968000
bd20c000
bd0d6000
bca58000
bcca8000
bb880000
bb560000
b9600000
3bee0000
39b00000
bc100000
bb5e0000
3a980000
bc3c8000
3c180000
bbc40000
bb840000
3b860000
bc190000
bc338000
3c6b0000
3a800000
bba70000
3c1b8000
bbbe0000
bc028000
3b4e0000
3c590000
3bb10000
bbac0000
3c178000
3b7a0000
3bd40000
3a400000
3be20000
bbc60000
bb420000
39d00000
3a900000
bc628000
3bbe0000
bb810000
bc3f0000
ba480000
bc2a8000
bc1f8000
bc008000
3c070000
3c8ec000
3cae8000
bb260000
3c2f8000
ba180000
b9800000
3c820000
3cbfc000
3c1e8000
bbea0000
ba840000
3c580000
39600000
bc2a8000
bc0b8000
bbd10000
3bfd0000
3c100000
bba80000
3b380000
39b00000
bb660000
bbb40000
3b5e0000
3b260000
bad40000
3bf30000
3ae00000
3bb00000
3d1c4000
3cb84000
3c98c000
bc894000
3b080000
3d81f000
3d40a000
3d1ce000
3dcfb000
3e683000
3eb2cc00
3e1b1800
3d0a6000
3c2d8000
3be80000
39d00000
3cb50000
38800000
bba30000
bbbe0000
bc048000
3ab00000
3b520000
3b060000
ba980000
3b780000
3b8b0000
bb000000
bd2ac000
bcf30000
be129800
bdfe0000
3ba90000
3e406000
3e947000
be3ca000
3ddd3000
bd292000
3c3d8000
3eb04000
3e1b7000
bc820000
3d308000
be0fd800
bda42000
3c540000
3be60000
3b920000
bbf60000
bbec0000
3b100000
b9e00000
bbb10000
bc3c0000
bce9c000
3c138000
bcacc000
bd9a9000
bc540000
bd87b000
3e3ca800
bd76e000
be575000
bc2b0000
3e0b4800
bcc7c000
bce68000
3e4a1800
be128000
bd584000
3d7be000
bdef4000
be4de000
3cfac000
3da30000
bbab0000
3b140000
bae40000
3c0a8000
3b4e0000
bc7e0000
bd276000
bd788000
bc2b0000
be3cf000
3df57000
3e119000
3dc51000
3d486000
bcb60000
3e116000
bd0f6000
bcd0c000
3dcfd000
bc038000
3df10000
bd11c000
3c7d0000
3db94000
3eabd800
bde4d000
3b820000
ba840000
bc3f0000
3c3d8000
bb5c0000
b9e00000
bba50000
3c988000
bc6b8000
3e0f8000
3b8e0000
3e4d4800
3d35e000
3e1cd000
bac00000
3e443000
be440000
3dd98000
3bb50000
bda97000
3d41e000
bd0c0000
be4d5000
3d02c000
bdf50000
3c6b8000
3e12f800
bdb2a000
be145000
bbd00000
3aac0000
38c00000
bb870000
3b460000
bbe20000
bae00000
be245800
bd1e0000
3da09000
bcda0000
bccb4000
bdd34000
3ea0f000
3dfa8000
3e576000
bdc43000
3e068800
be5f5000
3d202000
bdd3c000
3d378000
bd943000
3de50000
bdad6000
bdd0d000
bd88c000
be2a1800
bdc57000
bc5b0000
3bfb0000
3a800000
bb680000
3d186000
3c9a4000
be2c1800
3ad00000
3da86000
3c030000
3e5cb800
3e2b0000
3da0c000
3e08b000
3d1e2000
3e4e9000
be310800
bdc23000
3cfc8000
bbca0000
bdec5000
bc370000
bd160000
be229000
be266000
3e2dc000
bdb43000
bdeb5000
bd368000
3b940000
3b360000
39c00000
3d2e8000
3db88000
3ddcb000
be5b7800
3dfc5000
3e29d000
bd9ff000
3c360000
bd164000
3ea87800
3e295800
bd1d2000
bde12000
bd74a000
be462800
be4bd800
bdec4000
bead6c00
bd730000
be270800
bcb6c000
3e259800
3dfc2000
bc904000
bc828000
b9600000
3bd50000
3c2a8000
3d22e000
3d686000
3bc80000
bd9cf000
3da42000
bdb84000
3e2f7800
3e441000
3e8c7400
bcabc000
3eb72800
bd6d8000
be555000
be882000
3da9d000
be0e8800
be01d800
be226800
bd7ca000
3d9ab000
bdb5d000
be56d000
bdc63000
bd9e8000
3c9e8000
bbaf0000
bb120000
3c920000
3ca1c000
bd5de000
3c954000
3e6aa000
3e010000
3e043000
3d106000
bd50e000
3d698000
3e1c3000
3d946000
bebda400
bd9f9000
be0e6800
3cc7c000
3deee000
3e8ccc00
be2ce000
bddb0000
bdabe000
be8b8000
bd9ef000
3a680000
bd6b6000
3d4e0000
bc040000
bb6a0000
3c798000
3d45a000
bdd7a000
3e144800
bd176000
3e4aa800
3ca94000
3ed07400
bb0a0000
3dbfa000
3e450800
be8d7400
bd4fa000
be012000
be004000
3e366000
be3d6000
3e0a5800
bd97d000
3e7be800
bd9ed000
bbc10000
3e85ac00
3d9d7000
3d95c000
3d98f000
3c250000
bbff0000
3c370000
3d002000
3af40000
3e1ce800
3e745000
3cdc8000
3dc69000
be851400
3e59d800
3db44000
bcf84000
3d06e000
bd742000
be2d1800
bde07000
be5b1800
3b1e0000
bd24e000
3c1b8000
bcd3c000
bd913000
3d404000
bdcab000
3e2b7800
3de20000
3c8ac000
bb400000
3b640000
3c668000
3d16e000
3d47a000
3e094000
3d25e000
3df7f000
3e4fa800
3e78e800
bc678000
bc4f8000
3dbed000
be8dec00
bb990000
bd46a000
3c8cc000
3df0e000
bcd1c000
bd52c000
bdf99000
bd9c2000
be7ee000
3cc3c000
3e89e000
3d867000
be0dd800
3cb78000
3bb00000
3ab80000
bc078000
3b600000
bbbc0000
3db5e000
3d82e000
ba840000
bc770000
bd8aa000
3e046800
3cf5c000
3e1ad800
bd272000
be2dc000
bc320000
be69c000
be2c7800
3de2c000
3e40b800
bd086000
bc798000
3d7c8000
3de55000
3e395800
3d4d0000
be325000
3d248000
b9c00000
3bd90000
bb720000
bc028000
bdb87000
3b140000
3d92c000
bde0e000
3ca4c000
3e233000
3c8f4000
3d1b8000
bdab1000
3e5d7000
be191000
3d80c000
bde38000
3d004000
bb500000
be9c9400
bda1a000
3b420000
be3b8000
3d360000
3defc000
3d08a000
be154800
3d24c000
3be20000
baac0000
3b800000
bc0d0000
bc168000
be983400
3e39c000
be11e000
bdffa000
bdfc0000
bd82e000
bd1a0000
3d5ec000
3e3d9000
be227800
bd28a000
be7c2800
beca2c00
3dcf5000
3dd15000
3e2cf800
3e05d800
3d8f8000
3d85b000
bdee8000
be247000
3aac0000
bc290000
bbae0000
bbca0000
bbdc0000
bc6e8000
3d480000
3da87000
bc580000
be18d800
bd03e000
bd6c6000
be11b000
be67b800
be41a000
be5ba800
beadbc00
be064000
be626800
3e0de800
bd770000
bd3c8000
bd8ca000
bd90c000
3e47f000
bce10000
3dc48000
bccc0000
bd15a000
bc6a8000
bbe00000
3b220000
3b440000
bbc60000
3d845000
bd96e000
be19e000
3dcf4000
bbef0000
bd7f2000
be217800
bdb6f000
3d89c000
bdf9a000
beaf8400
3e37f800
bdfb1000
3e851800
bd25a000
3ddc7000
bd656000
bdbe1000
bc828000
be758000
be103800
3e7c1800
3ca24000
3b880000
bb3c0000
baac0000
3b580000
bbdf0000
3debd000
3bc30000
3e90d000
3c874000
bdd84000
bc440000
3e441800
be0fe000
be832000
be36b000
bdedc000
bd104000
3d016000
bd948000
bd404000
3d9d2000
3dac9000
3e368800
be778000
3e817800
3df45000
3d915000
3d432000
3aac0000
3b900000
3afc0000
3bcb0000
bc964000
bddf6000
3d32c000
3e4bf800
3ba80000
bda2f000
3e1b8000
be068800
3c6d8000
3d2ae000
3deca000
3e76a000
3db17000
3dea8000
3e777800
bddf5000
3c2b8000
be308800
3d53e000
3e1bd000
3c430000
3d2b4000
3cc60000
3e296800
bad00000
3a400000
ba9c0000
3b1e0000
bca48000
bd995000
3daa9000
bd922000
bda48000
be20e000
be15d800
be557800
3dbdf000
3ded4000
bd24c000
be769000
bcbf4000
3e13e000
bdc30000
3d1de000
3e08e800
bce38000
bd21e000
bdc8e000
bc85c000
3d56a000
3d1bc000
3e535800
3d7a8000
bc038000
bb460000
3b8b0000
bcbbc000
3c428000
bdd92000
3e21a800
3e25d000
bd8f9000
3deee000
bbda0000
bd734000
3d4ca000
3d819000
3e471000
3e10c800
bdc64000
bbd70000
3e819000
be56d800
bd430000
bd67a000
3c448000
be1bf800
be1e4000
3cd78000
3e0f2800
3d34a000
3ad40000
bbc40000
bb9d0000
bc854000
bcc70000
bd91e000
bd0f6000
3e424000
3e690000
3de92000
3cf54000
3b3a0000
3c8d0000
3ddfb000
3dd92000
bb3a0000
3b060000
3c99c000
3e7fe800
be1c0800
bd214000
bd974000
bd13c000
bc0d0000
3bc70000
3d837000
bc87c000
b8800000
bbf20000
bb870000
bc378000
3be00000
3a600000
bcbe8000
bd668000
bd6ae000
3d426000
3e4dc000
3d9af000
3c5f8000
3db8b000
3e550800
3e24c800
3e738000
3df3e000
3e9b9800
be1ef000
3e307800
3ec22000
3e0cb800
3e096000
3e519000
3dc9d000
3dcab000
3bf70000
3bdc0000
bbee0000
ba680000
3c0f0000
3a080000
bc448000
bb2a0000
3ba00000
3b580000
3d3b2000
3dd99000
3dbce000
3da2a000
3e397800
bdd65000
be688800
3e1d5800
3ea3d000
3d8ec000
be8fdc00
bde21000
3e0cb800
bd654000
bd432000
3d8e4000
3c520000
bb740000
bb660000
3c230000
3b900000
bbd30000
3bae0000
bbb60000
3b9f0000
bb3a0000
bbfd0000
bc238000
b9900000
3c068000
3bc60000
3c538000
3d092000
3c954000
3c688000
bc7a8000
3cf98000
bc088000
3cd70000
3d57c000
bc710000
bd162000
3cd7c000
3d8bb000
3ce2c000
3b740000
39e00000
3c4d0000
bb460000
3b6a0000
3baf0000
3c490000
bbac0000
bc1f0000
3c410000
3bd40000
39c00000
0
bbd20000
3afc0000
bbe00000
bc5e0000
bb840000
3bfe0000
3b100000
bba90000
ba380000
bc5a8000
bb7e0000
bbb90000
ba680000
bc1f0000
ba080000
3c220000
3c180000
3c138000
bb900000
bc268000
bbf00000
3c3a0000
bbc70000
bbee0000
bbea0000
3bdf0000
3c0b8000
bbd50000
bc0a8000
3ae40000
3be50000
bc118000
babc0000
3bc30000
bd052000
bd98b000
bcda4000
3cbf4000
3bf10000
3b5c0000
3b9a0000
bc348000
bc7a8000
3b5e0000
39f00000
b9400000
3c310000
bc198000
bb6a0000
3bba0000
ba400000
3bd40000
bbaf0000
39d00000
bc2a0000
0
bc874000
bc1b8000
bd064000
bdabe000
bdc17000
bda07000
bd070000
bd612000
bd36c000
bce38000
ba500000
3cb54000
3af40000
bc6d0000
bcbc0000
bcadc000
bc128000
3b560000
b9000000
3b6c0000
3c3c0000
babc0000
3aec0000
badc0000
3a900000
3cc5c000
3c690000
bde16000
be106800
3d8d8000
3d8b5000
bcbbc000
bc690000
bc7f8000
bd60a000
bd0b2000
3d0f4000
bdda4000
be0ab800
bc824000
bd2f4000
3d9d1000
3d7d6000
bc5e8000
bccc8000
bcc10000
bac40000
3bbe0000
bb960000
39400000
3d024000
3d810000
bdaa9000
bcca8000
3bb20000
bdd35000
be17b000
3e2ce800
3ded4000
bdd61000
bd43a000
3d304000
be1e2800
bdda6000
3d618000
bd174000
3db5d000
3dbf5000
be59b000
3d809000
3c078000
bd2f2000
bc910000
3d254000
3a200000
3b460000
bc3a8000
bae00000
bb880000
bce24000
bce88000
be215800
3d0d6000
3b040000
bc090000
3b2e0000
3e55d000
3e665800
3c020000
bc5e8000
3e609800
3d814000
3cc84000
3dcb3000
bca58000
bd7b0000
bc900000
3ddc3000
bd60c000
3e0c5800
3dcfc000
3c1f8000
3c6c8000
3ad00000
0
3da65000
3d970000
3cff0000
3dc25000
3dd29000
bc894000
3e34e000
3df19000
bcc80000
3de76000
bc844000
bd2be000
3e075800
be2af800
3dcf3000
3bc70000
bd841000
bbc90000
3df04000
bdeaf000
3e55c000
3dd69000
3dc36000
bde5e000
3d44c000
bb2a0000
3ac80000
3bc90000
3d6b0000
3d8f2000
3da4e000
bddd9000
be3bd800
bd2b6000
bcf88000
bdc86000
3e3a1800
3dab0000
3c718000
3e5bc800
be237800
3de9b000
3ae40000
3d492000
bc408000
bd022000
3d9e9000
be13a800
39900000
3ea1e400
3ecdc000
be1ae800
3c1d0000
3c6b0000
bb7a0000
3bff0000
3c6e0000
3c200000
bc290000
3e58a000
3e86b400
3d7e6000
bdbdc000
3e7be800
bd67c000
3c864000
3bac0000
3d46e000
bd0e6000
3e2c9800
bdbdb000
bd002000
3d9a2000
3d064000
3d89f000
3b660000
3e930400
bdccc000
3e9cc400
3dba7000
3dad0000
3d11a000
3b660000
3c240000
3c178000
3e07d000
be69d800
bd7ac000
3e8c7400
be1fa800
3e9f5c00
bc150000
bd8e9000
3e0a0800
3e302000
bdce2000
3cc3c000
bd780000
3e1b2800
3e234000
3d344000
bb540000
bd8c9000
3db6d000
3da5b000
bc050000
3e184000
3dd39000
3e066800
bd070000
3bf00000
3a400000
3d340000
3e1bc000
3c2e0000
bcf64000
bd9de000
bd696000
bdbf7000
bd2c4000
3d4ee000
3d75a000
be2fd000
bdf3e000
bd4b2000
bd36e000
bde4b000
be308000
3c8ac000
bc8dc000
3d0fc000
be426800
3bd70000
be453800
bc720000
3cac0000
bd5bc000
bc998000
3c210000
3c230000
3dc3f000
3e433000
3d78e000
3dce2000
3e45e800
3e5fe800
3ded1000
3e2e5800
bcc90000
bdb78000
3de77000
3d873000
3d2be000
3e255800
3df51000
3d588000
bd97b000
3d272000
3d144000
bc89c000
3e174000
3d994000
3d83f000
bcc5c000
bcef0000
bcdec000
bc548000
3b4e0000
3d288000
3e50f000
bd700000
bd460000
bc0c8000
3d002000
bd628000
be525800
3c998000
bdd67000
3cd5c000
3e9d0c00
3df4f000
3b5a0000
bd9ca000
3d9ef000
3e343800
bdc0a000
bdac9000
3da8e000
3dde2000
3dee1000
3e3d9800
be76e000
be82a800
bce84000
38000000
3b820000
bc010000
3e05e800
bdc0f000
bd46a000
3d89c000
bd95f000
3ac80000
3e01b000
bd10c000
bcd1c000
3e95b800
3e737000
bad80000
3ea4d400
3e46c000
3e109000
bda4b000
3e096000
3ea0d800
3e885000
3dba5000
3dcb4000
bbb30000
be5fd800
be174000
bc9c8000
bbbc0000
3c0f0000
3c3e8000
3d9fc000
be7c8000
3c558000
bd99b000
bcf58000
be271000
bb960000
3e5c9000
3da25000
3e77b800
3dd8e000
3d448000
bcc20000
be307000
3e8e4000
bca70000
3dbde000
be9a5c00
bd3b8000
3d2f6000
bdc09000
be9b0c00
be21e800
bda7c000
bc6d0000
bb660000
ba780000
3ce20000
bc8e8000
3d9ad000
bbbc0000
beb12000
3e092000
3dcfd000
bda6b000
3e181800
3c3a0000
3db06000
bb9a0000
3dc7f000
3e20e000
3c834000
3e657800
3dbc2000
3dbca000
bd8aa000
3d8a0000
bc918000
bd9bd000
bdac2000
3d890000
bd9dc000
bd9b4000
3b640000
3c010000
3c648000
bc9e8000
3e19f800
bd994000
bcf40000
bd4d2000
3e053000
3e088800
3d926000
bba40000
3e8fb400
3e0c2000
bd1fe000
3dcf0000
bd927000
3da32000
bd928000
3d27a000
bdf3d000
bead1800
bde28000
bd35a000
be598800
be089800
be9f8800
bdc39000
bab80000
3bf80000
3c5a8000
3c7c0000
bc660000
bd8be000
be138000
3d3fa000
be0ff000
bc8dc000
3db35000
bc1d8000
bd4b6000
3e2e8000
bb220000
be0c1800
3d012000
3bbb0000
bc708000
bea4fc00
bcb04000
bd776000
bd869000
3cff4000
3deb9000
be08a800
bd680000
bd016000
bae00000
3b9b0000
3ca40000
bd93e000
3cf84000
bbf30000
be08d000
be1c2800
be1dd800
be8de000
bdcc6000
3d04e000
bc588000
bbc20000
bde41000
bbb20000
3d47a000
be9e8000
be87a400
be1c7000
3dc14000
be755800
3de22000
be6b9800
3df53000
bcd20000
3d835000
3be90000
3c398000
3c810000
3cbc0000
bdcf8000
be71f000
3d83a000
bdd6f000
be006800
bdbfc000
bcbcc000
bda7d000
be951c00
bd827000
bd999000
be02b000
be7c1800
bd4b4000
3dfc9000
3d8cd000
bdd16000
be44e000
bd38c000
bdf5a000
be543800
3dab9000
3d90c000
bbdf0000
3bbe0000
3b740000
3caa8000
3d394000
be0d3800
bd9e2000
bde39000
3e5a3800
3cce8000
bcfc4000
be07d800
be097000
3c488000
be3a1000
bd712000
bd29e000
3c3c0000
be467000
3bcd0000
be895c00
bd820000
3cbac000
bd2c6000
3d556000
bd9ab000
bd87d000
be1d0800
bb900000
3c3b0000
bc058000
bbf20000
3cd9c000
3d166000
3e1cf000
3d786000
bcd60000
3ce44000
bcba8000
3e880000
3d0a0000
3c438000
bcc60000
3dd98000
be8a3400
bd61a000
bde80000
bdb0e000
3c9d8000
bd8d0000
bde17000
3c95c000
bcbbc000
be052000
bd5e0000
be0be000
bd3de000
3ad80000
39e00000
3c440000
bc3d8000
3d8da000
3e1f5800
3e021000
bd2dc000
3e21b800
3db2b000
be922400
3e525000
3d724000
bbc80000
bdacf000
3e411800
bd0b8000
bcb88000
3d90f000
bd837000
3dbb6000
3ac00000
be4d1800
bc1a8000
bdf91000
be26c000
bdad6000
bb620000
3bcc0000
baa80000
bc3b8000
bc0d8000
bc7b8000
3d006000
be127800
3dfc6000
bcb78000
3dd98000
3d98e000
bda8e000
bdbc1000
3d028000
3e669000
bcd44000
bce60000
3e0c3800
be123800
3d9b6000
bdc85000
bd430000
be983400
be1a7800
bd0ee000
bd4ae000
3bb60000
3c108000
3c4e0000
bb180000
b9f00000
bbe80000
3b200000
bdc08000
bc8fc000
3e29e000
3c130000
bd69c000
bdd89000
3cda8000
3e373000
bc8e8000
bdee8000
3e144800
be4bf000
3c660000
be76b000
be3ad800
3e2ae800
3dc69000
be518000
bcbf4000
bc3a0000
be138000
bd7b2000
bbad0000
3b850000
bbf70000
bb3c0000
bc490000
bbd10000
be21f000
beb5fc00
bcd64000
bdcc6000
bdf1e000
be20e000
3ddfc000
be1c8000
bd328000
3d33e000
3c0e8000
3e663800
3e351800
3ea46000
bba20000
bd468000
bcca0000
be446000
bd952000
bcb3c000
bca84000
bcae0000
bc938000
39000000
ba8c0000
3c120000
3b440000
3be50000
bdce2000
be87ac00
be383800
bde7c000
3dc2a000
3d776000
3df45000
bd2ce000
bd2e4000
bd07c000
3da7f000
be127800
3d2de000
3e55f800
bd0c6000
be295800
bcb24000
3deb2000
3d208000
3d0dc000
bb810000
3c210000
3c3a0000
3ba20000
bb720000
3bf30000
bb680000
3b640000
bbb00000
bc1e0000
3bc20000
3b9b0000
bbb30000
3a700000
bd73a000
bcdf4000
bcc50000
bda5c000
bce4c000
bdabb000
bc848000
bd45e000
bd8c9000
bcb88000
3aa40000
3b5c0000
3b970000
bbca0000
bbf80000
bc0b0000
bbd80000
3b8f0000
bc600000
3b870000
3c510000
3b420000
bc6b8000
3b9e0000
3bd90000
b9200000
38c00000
3b720000
3bdb0000
3b1e0000
3b8a0000
3b8a0000
3b3c0000
3beb0000
bb960000
3c010000
bbb20000
bbd80000
ba680000
ba100000
bc0d0000
bbba0000
3b4e0000
bad00000
3a680000
3b480000
3bb20000
b9900000
bc1b8000
39b00000
3bae0000
bb220000
3c138000
3bcc0000
bb420000
bbae0000
bc018000
3a780000
bc5d8000
bb300000
bd37e000
bd7d0000
bc824000
bc010000
3a880000
3c200000
bb850000
3c418000
39c00000
bc280000
bb2c0000
bc0d8000
bc0c8000
bb640000
3b240000
3b880000
bb300000
3b2e0000
3b8f0000
bb5a0000
3b080000
bbdd0000
bd500000
bdd26000
bc250000
bbf40000
3cf90000
3d76e000
3cd64000
3d2dc000
bd4d6000
bd9b9000
bcc80000
3deea000
bd0ce000
bd280000
bc834000
3bd20000
bbe80000
3b460000
bac80000
ba180000
3bb10000
bafc0000
bbe90000
ba400000
3d34e000
3cafc000
3ccb4000
3c4a8000
3ce3c000
3d917000
3e00b000
3d8d2000
3e16d000
bdff8000
3d006000
3e572800
3d25c000
be7bb800
3e1dd800
3df1f000
3e047000
bcc98000
be5ce800
bd21e000
3d7d0000
3c308000
bc5d0000
bc2a8000
3b9a0000
3c080000
3bb20000
3bb80000
bad00000
bd4e4000
bd210000
3e18d000
3e9ec400
3e6c3800
3d95d000
3e806400
3ddf8000
3d9d8000
bd6b0000
3e883800
bdb34000
bca90000
3dbb1000
bdd7d000
3e081800
bd932000
bd58c000
be701000
3e002000
3d6ba000
bb660000
bc470000
3bb40000
3aac0000
3c1d0000
3d6bc000
3c8b8000
3a280000
3ddfa000
3ee6fc00
be245000
be3f9000
3e622000
3cc58000
3c0b8000
3e56f800
3d648000
bdec3000
3c82c000
3defc000
bd2f0000
3e74f000
3dda0000
be06a000
3d91b000
bcb74000
3df4f000
bcec4000
bb2c0000
bbb80000
3bf20000
3aa00000
bc3c0000
bd6d2000
ba280000
3c338000
bd6bc000
bd672000
bd222000
be91c000
bd4e6000
3e39d800
bd922000
3c3b8000
3e136800
bdc54000
3e1f3800
bb970000
bd346000
3da1a000
be0a3800
bd0f4000
be852000
3e74f000
3d1a0000
bcce4000
3daf7000
3bdb0000
3c188000
3b4a0000
bd01e000
bdb3c000
3d1ce000
3e14f800
bd4f2000
3de6e000
bd963000
3e042800
3ccc8000
be183000
3e665000
be192800
3e558800
3b8d0000
3db5e000
3da09000
bda42000
3e4bc000
bdaa6000
3ac40000
3c5e0000
bcb04000
3e504800
3caa4000
3d426000
3be90000
3bb80000
bd126000
bd13c000
3d70c000
3e252000
3e6f6000
be1be000
baf80000
be528800
bc468000
3d3c6000
3e58e800
3d58c000
3e09c000
3d782000
3e2b1800
3d52e000
bc80c000
3e91d800
3ce68000
3e1bb000
3e756800
3d772000
be16e800
3d991000
3e314800
3d386000
3ac40000
bac80000
bc7c0000
3cb80000
3e082000
3d95d000
bd9ed000
3cb40000
bad00000
3da6b000
bdf65000
bbeb0000
be31c800
3e4fa000
be158000
bd0ac000
be8ddc00
3c628000
bd386000
be80d400
bd148000
bdc4d000
bccbc000
3e0ff000
be48a000
3db20000
3e159000
bcdd4000
bb620000
bb340000
bc814000
bc8d8000
3dd3b000
3e0f6000
3c670000
bd296000
3e0c4000
3ca54000
3da4a000
bd064000
bc760000
bd6d4000
be17d000
3e472000
be2e8800
bdebd000
3eabe800
3dca5000
bdc01000
3cd94000
bd562000
3dce2000
3caf8000
3db9e000
3e146800
3da62000
3c240000
ba200000
bc9a4000
bdbae000
3c358000
3dbb6000
bd6b6000
be55c000
beab6000
3dc1d000
beca0400
bd410000
bddef000
3ea4d800
3e926000
3e1bd800
bdc3e000
3e0f7000
be30b000
3de74000
3dc9c000
3cc20000
3e3b2000
3d1c6000
be223000
bcf64000
bd9fe000
bca98000
bb240000
3b890000
b9800000
bd254000
bd923000
be167800
be832400
bd843000
3e21f000
bdc51000
3d2e8000
3e4fd800
3d454000
3d678000
3e403000
3ea57800
bdcc5000
bde58000
3d370000
3de5e000
bea75000
3d935000
be85dc00
be9aa400
bea01000
be93a800
bd8f3000
3c910000
bb760000
bbc50000
3a9c0000
bd819000
be0ed800
be6cc000
3d8b3000
bddb9000
be1e2800
3d8d6000
3e238800
bd324000
bd57e000
3e198800
3d55c000
3ead2400
bdbfa000
3d8f5000
bb3e0000
bde7f000
3d877000
bca10000
3e140000
be947c00
be44c000
bdede000
bd4c4000
3c708000
bc0c0000
3b0e0000
3c0d0000
bd22c000
bd05e000
bd104000
be065800
bd49c000
3e128000
bd044000
3b560000
bd97e000
3e1ae800
3dbab000
bd8c9000
bdc6e000
3c3f8000
bbdf0000
bd472000
3e15f000
bdfd5000
3d3b8000
be4aa000
3e6b5000
3e1a2800
3daec000
3cddc000
ba380000
bbd00000
3b420000
3c2a0000
3c288000
bd2f8000
bd066000
be63d800
bea61800
beed3000
bf0b4800
bec3e000
bd69a000
bd160000
3e33c000
3e170800
3da6d000
3c260000
be275800
3d9d1000
bd582000
3e0b7000
bd7a8000
3d55e000
be2ca800
bc698000
3db50000
3db1c000
bbdf0000
bb5e0000
bb4e0000
3b080000
3c018000
bcc1c000
bdaa2000
bd1d8000
be03c000
bebf9400
bf378e00
bf38a400
bee87c00
be9a4c00
be98b800
be508800
bab40000
3d9e1000
be53f800
3dfda000
3db19000
bd31a000
3ea67000
3def9000
3dad0000
3e05f800
3ec1f800
3da56000
3a9c0000
3b060000
39c00000
3a080000
39d00000
3caf4000
bd915000
be89fc00
bd662000
be0ad000
3e842400
be46d800
bf3c7600
bee34000
bf229200
be49d800
bda9b000
3d8c2000
3e816400
3d0f8000
3d96b000
3e266000
be24a800
3e26a000
be55b800
bcdc0000
bd8de000
be1c7000
bd7b8000
3bac0000
bc2a0000
bba30000
3ba40000
3eb4ec00
3dd8f000
3e158000
3dff7000
3d9b7000
3e504800
bcdbc000
3e27d000
bd646000
beccf400
bf10cc00
bcdf4000
be163800
3e089800
be116800
3c9dc000
3eb30000
be309800
3edd3c00
be05a800
3def4000
3d8e5000
be0f6000
bcbcc000
3c1b8000
bb9e0000
3b720000
3c028000
3e848000
3e06c000
3e244800
3e6c0800
3e604000
3da64000
3e571800
3e80ac00
3d0fe000
3e739000
be030800
be0fb800
3e5be000
bcf48000
3d852000
bd28c000
be7a3000
bdd3e000
3e1da800
bd050000
3e9b4400
3e7c8800
bd6b2000
3ba40000
3bea0000
3c3c8000
bbe70000
bbca0000
3e34d000
3e8c6800
3e8efc00
3d102000
bd184000
3d298000
bbae0000
3de99000
3d2d0000
3eb6d400
3e227800
3dca9000
bed43400
3d9ae000
bd91d000
3d392000
bcc08000
bd4b2000
bdfda000
3d9d4000
3d4e6000
3d3e6000
bd943000
bb970000
0
3b0a0000
bba60000
bd928000
be42a000
be29c800
3d8ad000
bc798000
bd618000
3e35f000
3c0b8000
3dd16000
3dc38000
be12d000
3e0dd800
be737000
3da27000
be0f3000
3d432000
bd3c6000
3c2b0000
3e592800
bd114000
3cac8000
be2cc800
be61c000
bdb31000
bcc4c000
3b8e0000
bb870000
3c0c8000
bd4e0000
bca00000
bc8e4000
bd866000
bcedc000
3e837c00
bc3e8000
bc6a0000
3e03d000
3db46000
bd8a8000
bc9e0000
bb3c0000
3deab000
be4ec800
3dc1c000
bde8f000
bd2e8000
3ccbc000
be1e5000
bd47a000
bdfd1000
be227000
bd53e000
bba70000
bc380000
3b300000
ba000000
3bb30000
3e605000
bd8c3000
be1f4800
bda87000
be067000
3e4a7800
be4df000
be5cd800
3e1e3000
3d0b2000
bdde9000
bb000000
3d8b0000
3e0ad000
bd0ae000
bd8bf000
bddd3000
3dffe000
bde79000
be316000
bdb3b000
bddde000
bd4a0000
3c4f0000
3ad80000
bb240000
3b940000
39a00000
3e136000
3c688000
bd2de000
bd96d000
3e6b7800
bdbf4000
bdf5f000
bd91e000
bd32e000
be109000
3e1d9800
bdd07000
be189000
3dfa2000
bcea0000
bd8f3000
be536800
3c5c8000
be28a800
bda43000
bb320000
bd502000
bcbac000
ba100000
bc498000
b9800000
3bd80000
3b880000
bbdf0000
3d430000
3dceb000
bce90000
bc7b0000
3c6f8000
be246800
bca68000
be4c8000
bde9f000
3d866000
3bfc0000
3d4f2000
bdb7c000
bd6c4000
bb1c0000
3df93000
3e859000
3dff3000
3d02c000
ba100000
ba700000
baec0000
3a280000
3c298000
3b5a0000
bb3e0000
bc280000
bb980000
3c938000
3dd7d000
3cce8000
bdb9d000
bd8fa000
3d104000
bc458000
3dea6000
3dc48000
be0a7800
bdabd000
3cddc000
bda5c000
3d600000
3e1bb000
bbfd0000
3bd40000
3cff8000
3c278000
bb560000
bbc50000
bb540000
3bb90000
b9900000
bb180000
bc058000
3b8a0000
bb220000
3bb10000
bbdf0000
bb7e0000
bc3e8000
bce64000
bcb54000
bd52c000
bdab5000
bd8d3000
be0a3000
bdff7000
bd876000
bdf3b000
bd954000
bdbf6000
bdafe000
bcb68000
3b4e0000
3c3f8000
3af00000
3aa00000
b8c00000
bc1f0000
bc258000
3a580000
baac0000
3b950000
baf40000
3bce0000
bae00000
3ba50000
bb7a0000
bb7a0000
bbd90000
3c118000
bba00000
3b5c0000
bbb30000
3c1e8000
39400000
3a780000
bbcf0000
3c358000
3b180000
ba600000
3bc90000
bbc60000
3b3c0000
bbc80000
3a600000
3a980000
3b1c0000
3b960000
3c3d0000
3bd30000
3b040000
bc350000
bc4d0000
bd0b8000
bd815000
bd2b4000
3a880000
bbc60000
bbb00000
bc900000
bd4de000
3c8dc000
bc698000
bd404000
bd016000
bbc00000
bcb0c000
bcaec000
bd6f6000
bcec4000
bb320000
ba080000
bc1e0000
bb080000
bc238000
bba00000
3a180000
bbab0000
bc2a8000
b9b00000
3b4c0000
3adc0000
bd278000
bd47a000
bdc49000
3c180000
bcb4c000
bdc52000
bdbee000
bd50e000
3c8a8000
3d192000
3e0bf800
3e23e800
3de71000
bc658000
bd432000
bd6cc000
bd0ec000
bc8b8000
bbc30000
38000000
3be30000
3c468000
bc0b8000
3b380000
3b830000
3cb40000
bbca0000
bd92a000
3d708000
bd982000
be076800
3c3c0000
3d25e000
bd88f000
be8bf800
bdf83000
3d9c0000
bccf0000
3d945000
3e313000
bd494000
be786800
3ca98000
3dad7000
3d5f8000
bd048000
bb990000
bc588000
3a500000
bbad0000
3c0d8000
bc3e0000
b8c00000
3c5a8000
bd11c000
bd228000
3d9e3000
be1da000
be2ca800
bda75000
3da71000
3da71000
bd18a000
bda3a000
be897800
bd2e4000
bbd90000
3cb58000
3be30000
3d28a000
3e570000
3dafa000
3ddbe000
3e230800
bd0ac000
3c400000
3d54a000
3b360000
bad40000
bb3e0000
bd114000
bd2d8000
be25e000
bd5d4000
ba000000
3da4e000
be573000
bdf9d000
bcfcc000
bd94c000
bdd9a000
3d578000
3df1b000
be3d3000
3ced4000
bd6fe000
be017800
3d9e3000
bcf90000
be486000
bdbac000
3da90000
3df0d000
3dab4000
3d78a000
bbf80000
3b020000
3d869000
be044800
bbee0000
bd03a000
3e32f800
3d028000
3d6b8000
3e117800
be2ff800
3ddb7000
bc510000
be0f4000
bcc0c000
3d51c000
bdfcb000
3db8e000
bda86000
be161800
3df50000
bd28c000
be50b000
3d59a000
3aa00000
bd042000
3d81a000
bbbc0000
3bb60000
bb1c0000
3cff8000
be177800
3d39c000
bc3a8000
3d7ac000
be7b8800
be0ae000
bdbdc000
bde1d000
3d162000
bda67000
bd4ae000
bcc80000
3b540000
bd94f000
be0ce000
bdbce000
3db02000
be0e5000
3ce38000
3ef46000
bd698000
3e00c000
3afc0000
bc6e0000
bb9b0000
bb4a0000
bcc94000
3ca2c000
3da75000
3e244000
3db86000
3d7fe000
3d81e000
bdb60000
bdb2c000
bd504000
be35e000
3d738000
bde5e000
3daf8000
bc858000
bd85b000
bd2ea000
3d1ca000
bdb09000
be8eb400
3dd50000
bea82000
3d3d2000
3e187800
3e20f000
bbdd0000
3c128000
3b1c0000
bc650000
3cedc000
3e906c00
be7f7000
be16c000
bded2000
3cc50000
bd5b8000
3c6b0000
be1c3800
bdb81000
bd4b8000
3d73a000
bd07e000
bd0fc000
bd592000
bdb29000
3d164000
3dc77000
3e677800
bc8ac000
bb810000
be03c800
be034800
bcc08000
3d822000
bd582000
bb060000
bc4e0000
bdbf0000
3d9ae000
bdd7a000
bddba000
bd410000
bd2ae000
bdda9000
bdc9b000
3e023800
be299800
be424000
bee1cc00
bd949000
bde64000
be15e800
3dbb0000
be106000
be45b000
bda9e000
bd47c000
be05a000
bd400000
bddd6000
3e1d1800
bd36c000
bd75e000
bb640000
bd458000
be52e800
be1c0000
becc4800
3d7a4000
3e553800
be1e0000
3d078000
3e132800
bd9ec000
3e567000
bdb0f000
beff7c00
bdcec000
be9d8000
bd742000
be30f000
3d94d000
bd626000
be958800
be2e6000
3cd9c000
bd72c000
bdda0000
bb8f0000
bc720000
bd6f8000
baa00000
bb120000
bdf54000
be11c000
be3ea000
3b000000
bd6b4000
be0d2000
bbc70000
be473000
bae00000
3d718000
3e32c000
bdeeb000
be2fe000
bda3c000
be471800
be4da800
be353000
3e0a9800
3ddb2000
3e695800
3d49e000
3dc97000
3ce50000
be96c000
be181000
bd941000
bb600000
3bb80000
bd6ea000
bde95000
3e39d000
3dba1000
3d792000
3d5ae000
bcc58000
3df64000
3e643800
3df6e000
3e45c800
3e8aa800
bda6d000
3e373800
3e10f000
3e2c7000
3e11e000
bda85000
be0e3000
bda36000
3d0c8000
3dc30000
be845400
bd520000
be198800
bb2a0000
3c190000
bc240000
bd6fc000
3dcb9000
3dbe2000
3d69e000
3e535000
3ea07000
3d064000
3eae3800
bd7d4000
3e57b000
3e2bb000
3de02000
3e23d800
be3f1800
3d863000
3d86d000
bdce6000
3d298000
3d094000
bda20000
bd030000
bde52000
bd2c8000
3e45d000
bd468000
3bab0000
b9d00000
3c768000
b8000000
3e613000
3e22d000
3e8fe800
bc820000
3d947000
3eba6800
3e471000
3e523000
3e2a7000
3e6fe000
bddff000
3eae0000
3cebc000
3e509000
3d34e000
bceb0000
3cd70000
be5c9000
bd5a8000
3e188800
3df99000
be04e800
3d19e000
bca1c000
bc710000
bba90000
bb3c0000
bc010000
3e0b6800
3dc89000
3d878000
3d248000
3e925c00
be2a5000
3cccc000
3dc87000
3e892000
3e285000
3e86b800
bdd9d000
3cc08000
3ddfe000
3ddce000
3e2a9000
be2f5000
3e340000
be752000
bd092000
3e073000
bc2c0000
3de27000
bd885000
bd9e3000
bbf50000
bab80000
3bb80000
bd562000
bbb20000
bd9f2000
3e232800
3e533800
3e7d1000
3db34000
bcff8000
bbd30000
3d09a000
3e56c800
3db36000
3dea4000
3d066000
bbb10000
3d492000
3d2a6000
be041800
3e6b1800
3e26d000
bda4a000
be589000
3c9f0000
bba80000
bd6b2000
bb8a0000
bc3c0000
bc778000
3d2a6000
3dd15000
3d05c000
3d580000
bcd00000
bdc4c000
3d088000
3d836000
bd48a000
3cc70000
3e8d7800
3ca70000
bc450000
3dc64000
bdd91000
3da61000
bdb03000
3ea4b800
bdaf2000
3dc64000
bdc35000
bbba0000
3c4f8000
bdcdf000
bd7bc000
bc010000
bc1e8000
bc520000
3d4bc000
be0c7800
be1c1800
bd672000
3de84000
bdfa2000
3dbef000
be417000
bdd86000
be388000
3e0ae000
3dc59000
bc220000
3cf0c000
bd0b8000
3e954400
ba180000
be7dc800
3e084000
3c9b0000
3d622000
be1a0000
be094800
bcfb0000
bc328000
bc098000
b8000000
bc500000
3d44e000
3d9ab000
bd92a000
bd78c000
be18e800
be7f5000
3db74000
3e151000
bd8c9000
bdc99000
be5e8800
3d91f000
3cc2c000
3db03000
3d0a0000
3d632000
3e0c6800
bd27e000
3bdb0000
3d044000
bd7b0000
be033000
bcbf0000
bbf00000
bbef0000
3be80000
bc510000
3c2e8000
3cc34000
3df63000
3e385800
3da18000
bd50a000
bcc20000
bd38c000
be498000
be110000
3b800000
bddd4000
3d8a8000
3d835000
3cbb4000
3d68a000
3db10000
3e659800
3dc7f000
3dc4a000
3e536800
bb000000
be20b000
bdf64000
bde15000
bac00000
baf80000
bc2c0000
3c008000
3c1b0000
3b9b0000
be29b800
3cb78000
bcee0000
bd0e6000
be131800
be009800
3e66d800
bd0ee000
3e401000
bec17c00
3d216000
bd43a000
bd903000
bd7fc000
3cdf8000
3e813000
3e124800
3def4000
3e584800
bcebc000
bd286000
bc920000
bb9e0000
3b3e0000
3b6a0000
3c038000
3d8be000
3dd81000
3ddcd000
bcd48000
bc378000
3e924400
3dcb0000
3dc64000
3d997000
be134000
3dded000
3e455800
bdba2000
3e428000
3d7ca000
3e536000
3b340000
3dedb000
bd14e000
3d82a000
3dc7c000
bd8a1000
bca04000
bb560000
bac40000
3c0a8000
bc090000
bbf70000
3db00000
3d170000
3e287800
3d0ec000
bd404000
be050800
3e602800
bbb00000
3df7e000
3ddc6000
be1d0000
3bff0000
3d9e3000
be10e000
bc940000
3d8ae000
3d94b000
bc9bc000
3e229000
3e81d400
3e628800
bdbf9000
bd4c0000
bc848000
3c3d8000
bb120000
3aac0000
3bc00000
bc148000
bd8f5000
3d008000
3e275800
3bc60000
3e778000
3d99e000
bde15000
3e42a000
be319000
3d827000
bd73e000
3cb8c000
3c980000
bd5e6000
bdbdc000
bc628000
bc898000
3de9c000
bd6e2000
3cde8000
bd620000
bc270000
bccb0000
bbf40000
0
bc3b8000
3c128000
3b600000
3ce88000
3d9a0000
3e5ba000
3dd6e000
3d1ce000
bd9a9000
be255800
bd7ac000
3e5e2000
3bdc0000
3c4d8000
3dec1000
3d8c5000
3bf10000
bea9ac00
be315000
bd2d6000
3d816000
bb4c0000
3dcda000
bb8e0000
bb6e0000
bc0b8000
3b020000
ba880000
3b8c0000
bb300000
3af80000
bb320000
3b880000
3b9c0000
bbc70000
ba380000
3cb24000
bca24000
3c580000
3d1da000
bc830000
3dd20000
bbf40000
bdab6000
bdf51000
be7c2000
3cb5c000
3df3a000
3bf40000
bc348000
bac80000
3bbf0000
bb3a0000
bb460000
bbf60000
bbc60000
3c330000
3b960000
3bb60000
3bdf0000
3b240000
bb320000
bbb70000
bc480000
bc068000
ba840000
bbf40000
bbae0000
bb7c0000
3bfd0000
ba380000
bc2e8000
bc1b8000
3bf30000
3c2e0000
3b060000
3adc0000
bc0e8000
3c138000
bbc30000
bb0c0000
3a580000
38800000
3bc70000
bb520000
3bae0000
bc0c8000
bbde0000
bbee0000
3c2c8000
3a680000
bc4d0000
39400000
b9900000
3ba20000
bb500000
bc6f0000
3d68e000
3d8b7000
bc170000
bc588000
bb2e0000
3b600000
3a180000
3b3a0000
3ba80000
3c078000
3c508000
3c240000
bb640000
bc578000
bb800000
bb4e0000
3c3e8000
3c640000
bc3e0000
39e00000
b9200000
bbb50000
bcf58000
bd4a8000
bdaf7000
bd4ca000
bd656000
3e152000
3d224000
3e842000
3e1a0800
bce64000
baec0000
3a500000
3c700000
3c020000
3bce0000
bb740000
3bcc0000
b9200000
3c480000
39600000
ba9c0000
3bc50000
bbec0000
bbf80000
3c618000
bd10c000
bd05a000
bcf98000
bdd75000
bc1d8000
bd062000
be560800
bdebc000
3da7d000
be765000
bd815000
3e104000
3ac00000
3e0c2800
3e1a0800
3cd2c000
bc7d8000
3e066000
3d5ee000
bce98000
bd811000
bd2da000
3c3d8000
bb9a0000
3b660000
39e00000
bc408000
3ab80000
3dd4e000
3d840000
3d3ac000
3d41e000
3d67c000
3d2e8000
bdf51000
be549800
3e3fc800
3cd20000
bdfa8000
3e556000
be065000
bd598000
3d092000
3e25c800
bd5fa000
3e635800
bc4b0000
bd8d8000
be12b000
bcfd4000
3cf90000
3bb90000
3bc00000
bb8d0000
bd544000
bd5a6000
3e18a800
bd889000
be9ad400
be8c8800
be831000
be06a000
be3c7000
be27c800
3d54a000
bdfb3000
be4e5800
be3ab000
3c488000
bcdb0000
3d67a000
bdbe5000
3e113000
3e32f000
3c710000
3da29000
ba080000
3d4d4000
3d044000
3a900000
bb260000
bdb0e000
be272800
be619800
bdfd0000
3cd80000
bdc53000
bd6ae000
bec46800
be4c4800
3d804000
3e434800
bdcf3000
3dcbd000
bcd90000
bd8ca000
bcd14000
bcd28000
3ca70000
be48b000
bd4e0000
bdc4f000
be278800
be6ea000
bdfa3000
bcd18000
bc95c000
3b660000
3c2d0000
bd813000
be0c0000
be868000
be8d9800
bcdfc000
3df3d000
beeab400
3eb48400
3e095000
bd282000
3e54b800
be317000
3e168800
3bdc0000
3de03000
3d476000
bd8de000
3e018000
3df89000
3dae2000
3de29000
3e305000
bdcf4000
3e07f800
be328000
bc138000
3af00000
3ccd0000
bcbd8000
bc628000
be2dd000
bd867000
3d810000
3e84cc00
be53d800
be283000
bdbd8000
bdf7e000
3e04e800
3e373800
3da34000
bc118000
be83d800
3c91c000
be065800
3e298000
bdebf000
3dbab000
3e067000
3e865800
3d0aa000
3d1d2000
be108000
bbb40000
3c160000
3ba00000
bca74000
bd190000
beabf400
bef10800
3d92e000
bc9d0000
3d99c000
3d38c000
3e318000
3e099000
3c2b0000
bd018000
3c1c8000
3daf7000
3e00d800
bdf2d000
3e410800
be322800
bdc84000
bc378000
bce60000
bd058000
bc884000
be727000
bc010000
3d85a000
bb5e0000
3beb0000
bd8fb000
bde07000
be8a1000
be9e8400
bbfe0000
bd7ae000
3e4d3000
3d76c000
3dbf7000
3e2c5800
3e649800
3da25000
3d76a000
3d642000
bcbdc000
3dd50000
bdf0d000
bd6be000
bdf80000
3e52e800
be2d1800
be422800
be417800
be41c800
bce5c000
3c6f0000
3b740000
3ba60000
bca24000
bd34e000
bd3f0000
bd002000
bdaf6000
be56a000
be111800
be8bf400
3db88000
bd95d000
3daf8000
3ec94000
3e184000
3c000000
3d17c000
bd4e4000
3dab8000
3d158000
3d73e000
bd71c000
3de25000
be230800
be55d800
bdf7b000
3d082000
3ae40000
bb8d0000
3b3a0000
bd98a000
bd6fc000
bd276000
bdeff000
3dfff000
3d897000
3c200000
3dd6e000
be095800
3d924000
3c570000
bd11c000
3e2fd000
bd1fe000
be283000
bdd0b000
bd40e000
be268800
3d24a000
be627800
be6c7000
bdb22000
3d3a2000
3cbf0000
3c91c000
bb890000
3aa40000
bb970000
bc3a8000
3ca1c000
3d3d6000
bd972000
bdec7000
3e833000
3dbed000
bbf80000
3de31000
3c8f0000
be06f800
3ce94000
3d602000
bd752000
3d925000
bce4c000
bda7b000
3ca04000
3e578000
3d3d4000
be76d800
be247800
3dc43000
3db66000
3d7d2000
3a9c0000
bb970000
bc440000
3d0aa000
3dfe5000
bd91f000
3d562000
bdac3000
bde13000
3dbc5000
bc170000
bd8be000
bdf92000
be3c7000
bda86000
3ed73000
3e042000
3dd8d000
be1be800
be998400
3cc44000
be6f2800
be314000
3c720000
be09d800
bd9d5000
3de4b000
baf80000
bbeb0000
3c288000
bb890000
3db85000
3d8de000
bd4a0000
be342000
bd1fa000
bb8a0000
3da45000
be936c00
be621000
3db3f000
3e33d000
bd6fc000
3d94b000
bb880000
bdb06000
be2a9800
3defb000
bddbe000
be0e1800
3de32000
bc824000
bda69000
bcc94000
3c840000
3cd20000
3b6c0000
bbdd0000
bc488000
3cfa4000
bd25a000
3c640000
be7a3000
bd44a000
3e068000
bd5d0000
3e346800
be301000
3db58000
be2c8000
3d50c000
3bf50000
3d7a0000
3e3c9800
bea62000
bdd13000
be8fc800
3d819000
be56c000
bb2a0000
be399800
3df70000
3d51c000
3ced0000
3c290000
bbd80000
bbe20000
3b1e0000
3c008000
bd124000
be7aa800
be5c6000
3ccd0000
bd42e000
be350000
3d7d6000
be259000
3e5c2800
be4b2800
3e3f1000
bcc78000
bd296000
bedbc800
bdaa1000
bda84000
3d9b3000
be8c4000
3da86000
bda94000
3e40e000
3d440000
3d508000
3bba0000
baa80000
bb540000
3afc0000
3d098000
bdb7e000
bdbf5000
be124000
be4a0000
bdd13000
3e2ab000
3e3a4800
be174000
bd87a000
bbb20000
3d87d000
3d814000
bdd5c000
3c954000
3e818c00
3db2f000
bdfd7000
bd5cc000
3d8d8000
be56c000
3e111800
3e024800
3d4c2000
3bd80000
3bed0000
bb500000
bb200000
bdc8d000
bd214000
be99dc00
3c408000
3d9ad000
be413800
3d55c000
3c8f8000
bdc90000
3e084800
3db72000
be9e7800
3db29000
3d282000
bea16c00
be6e5800
bda5f000
3d9dd000
3e1e2800
3c340000
bdd5d000
3e6c7800
3e843800
ba900000
3c240000
3ba80000
3b060000
bc348000
be0b4000
3d34a000
be225000
3e6fb800
be434800
3e094800
bdf61000
3e73e000
3d49a000
3e392800
bc970000
3d7cc000
3ccb0000
bd2da000
3e54d800
3e1ee800
3d368000
3c228000
3cc98000
3de4c000
bdfd8000
3e889000
3d8dd000
3bae0000
3b0e0000
3aa80000
bbb30000
bcb04000
3d35a000
3df84000
bb850000
bb2e0000
bdec5000
bb810000
3dae6000
3e18f800
3dbe7000
3d602000
bd092000
bd8a1000
3dc4b000
bdc2c000
3be60000
3db44000
be1f5800
3e440000
3e1b4800
be74e800
be04a800
3e0b4000
3a180000
bb890000
3b3c0000
3be40000
3b380000
bcbcc000
bc9d4000
3c838000
3e6b1800
3e2c1800
be451000
3e60b000
3e0ef000
bdc75000
3cbe8000
3d6ce000
3a8c0000
3d943000
3d124000
be61e000
3e406000
bb8b0000
bdafc000
3e8a2000
3e187000
bc388000
bb740000
bc600000
3cee8000
bba10000
39900000
bc5a8000
3c238000
bb3a0000
be399000
be02e000
3e0ba800
3cff4000
3e2be000
bdb25000
bd62a000
3d218000
be182800
3e532800
3d3b8000
bd5ac000
3e26d800
3df48000
3d957000
be6f9800
3e44f800
3ba90000
3d2aa000
3ddfd000
bd358000
be0a8800
bc508000
3c290000
3b1a0000
3b9b0000
bbd80000
bb800000
bdc9a000
bdf28000
3c8a0000
be566000
bd35c000
bda8a000
3d3e0000
bda31000
bd098000
bb9a0000
be587800
bc984000
bdb85000
be530000
3c9c8000
3dd49000
3ccf8000
bd60e000
3d344000
be3c3800
bcec8000
bd37a000
3b870000
3aa40000
3bfb0000
3c680000
3c5e0000
3be10000
3c9b4000
bc200000
bd6a6000
be496800
bbc10000
be17c800
be2fb800
be3b9800
3e1aa800
be845000
3c920000
3e92ac00
be577800
be816c00
bd17c000
be2f6000
be5b3800
bcb38000
3e15e000
3db1d000
3d5d8000
3b000000
bbcb0000
bbb30000
3ba60000
bbf50000
3c578000
3ac80000
bbb00000
3c280000
3d340000
3d9f7000
3d568000
be132800
be231000
bde69000
bda8f000
bdd12000
be77c800
3d3c2000
3dac3000
be8b9800
bdfd0000
be252000
bde24000
bd826000
bcc98000
3d43c000
3a940000
3b8e0000
bc318000
3b4e0000
3b9a0000
bbe50000
bc2d8000
3bca0000
3b440000
bb9c0000
3ab00000
bac40000
3b540000
3ba00000
bb6c0000
3ccf4000
3cfdc000
3ca10000
3cb80000
bb8f0000
bbc10000
3bd70000
bc91c000
bd238000
baac0000
3bf50000
3c810000
3d2b2000
3a880000
3ae80000
3a280000
3b2e0000
3bdb0000
3c5b0000
b9400000
3af40000
3be90000
3c4b8000
bc160000
bb400000
bbf80000
bbb30000
38c00000
3b9e0000
bb380000
ba200000
3b900000
ba800000
bac40000
bbf10000
bba40000
3c0b0000
3bb00000
3b340000
3b970000
bbbc0000
bbf50000
3c358000
bc410000
bc078000
bb240000
bc458000
ba080000
bae40000
bacc0000
ba600000
3bc30000
3b4a0000
bc368000
bbfb0000
3c378000
3ba90000
bbaf0000
3c4a0000
ba940000
3a900000
bc048000
bba80000
bc108000
3bf90000
bb400000
3c5d8000
bb8a0000
3b880000
3bc90000
bc160000
bb7c0000
3b6a0000
bbd10000
bbe30000
3bf10000
3b1a0000
bab40000
bc078000
bac40000
bca70000
bd110000
bcdbc000
3d3dc000
3e1d9800
3d9ee000
3c810000
3c618000
3c87c000
3cb24000
3ce88000
3d79a000
3dc77000
3d04e000
3c378000
3b9f0000
bba50000
3c0e8000
3c468000
39c00000
bb950000
3c5b8000
3b2a0000
3c358000
3b820000
3b280000
bc438000
3ca50000
bd1ec000
bd012000
3d12e000
3d86d000
3e0bd000
3d93b000
3d4e2000
bd879000
be837000
be55a000
3de7f000
bb660000
bdf02000
3d6ec000
3d41a000
3d27c000
3c558000
3cb40000
bd0a6000
bc790000
bbf10000
3a980000
bb0c0000
3b9b0000
3c038000
3c350000
3c0b8000
3c1e8000
bd254000
3c068000
3e1d6800
be36c800
3dc3c000
3e94a400
bd05a000
bd13e000
be804c00
bd6c0000
bdae0000
be5fc800
3e36c800
bd484000
be1f6800
bd8eb000
3e2ff800
3d284000
3d946000
3de8e000
3dbfd000
3c4d0000
bc0e8000
3a840000
3bce0000
3d672000
3d55e000
bc0d8000
bda05000
bcc10000
3cca8000
be1e8000
bdbb5000
3d710000
3e10d800
3e287800
bdced000
be23b800
3e366800
bdf79000
3e54a000
be8ec800
3d2c6000
beae8400
3dcfa000
3e636000
3e046800
b8800000
bc1e0000
3b8c0000
3c208000
bab40000
b9800000
3d348000
3dd9d000
3df5a000
3e3b7800
3dcc6000
3dd5d000
3cf74000
3e378800
bcffc000
bd408000
3e205800
be038800
3ac40000
bddba000
bd53c000
bbb20000
3cd2c000
3e930000
bd9eb000
bd2c2000
3d380000
3c210000
bdb04000
b8000000
bb420000
bc3d0000
3b9c0000
3bcf0000
3db0b000
3e07a800
bdd39000
3e9b8c00
3d89d000
3e4d2000
3c240000
3db44000
3e155000
3e2b7800
3e05f800
3e669800
bdc12000
3dcab000
3c070000
bd0ce000
3c9a0000
bd1a8000
3c5f8000
bd9f2000
3de1d000
3dec2000
3cc28000
3dae8000
bb540000
3bca0000
3bb60000
3cd9c000
3e4f1800
3d00e000
bbbf0000
3d6be000
3bda0000
be711800
3d3d2000
be232800
be084800
bc8a8000
3e2b3800
3dee5000
3de75000
bcbf4000
bbbf0000
3de3d000
3d90a000
bcd08000
3d0e0000
3d410000
bdd0a000
3e1f2800
3d4fe000
3d9f7000
3c048000
bb440000
baa00000
3ba10000
3e562800
3d27c000
bdcbb000
bd750000
3e86e800
3e2ac800
3e8b8400
3db15000
3dfd1000
3dc9a000
be30d000
bcc8c000
3e7a8000
3ddf6000
3e626000
3df94000
3d5a6000
bcb90000
3d88f000
3e072800
be39d000
bd452000
3c3b8000
bdd1d000
3bd60000
bbf40000
3b830000
bad80000
3ddc3000
be1b7800
3e8c3400
be613800
bd939000
be2ac800
bef4c800
be0b7000
be714000
be888000
bdf15000
bde98000
be15e000
3e26a000
bd70e000
3b240000
3cb64000
3e356000
3dffd000
be8de800
be2aa800
bd356000
bcf58000
3d67e000
3c218000
3be80000
bb840000
bd2a8000
bc9e0000
3d51a000
bdf13000
3d284000
be23d000
bea41c00
bebfe400
bedbec00
beb02c00
be320000
be319800
3d1de000
be13a800
be3b0000
bd084000
3d45e000
bcbf0000
bb180000
bcd18000
be2aa800
3dbc3000
3d372000
3d999000
3e071000
3bfe0000
baa00000
bbbe0000
bd11e000
bdd0d000
be89b800
be7c7000
beb2a000
bf1f3200
bf002000
bd3a2000
3c82c000
3e1bc800
3e59c000
3d290000
3e06f800
3d318000
be0ae000
bd654000
bd9e3000
be158800
be1cb800
3cc14000
bd876000
3d778000
3d5f2000
3e2a3000
3e34e800
b9d00000
3b680000
bc4e0000
3c678000
bd356000
bea13000
bea3e000
be910000
bd56e000
3c270000
3e925000
3e6ec800
bde00000
bccdc000
3c8e0000
3d85f000
be04a000
bd026000
3cf50000
3d546000
3d878000
bc2f8000
3d096000
be217000
bd8b7000
3df17000
3de8a000
3d4a0000
3b120000
3ba70000
3c1a0000
3cfe0000
3cd7c000
be182800
bd75c000
3e86dc00
3e34d000
3e753800
3dd3f000
3dbd5000
bdb91000
3e7c3800
be210800
3d0e8000
3dacf000
bd4f6000
bd5e8000
3d1de000
be618800
be198000
3cd20000
be0d9000
bd98e000
3de2f000
bd09a000
3ccac000
bc218000
bc258000
bb1c0000
3d158000
3dc40000
bd5f4000
3d046000
bdae0000
3e73c800
3ce88000
3e28d000
bcc20000
3dbf6000
3d624000
be0f0800
3dde9000
3daee000
bd959000
bdb8b000
3e1eb800
bd274000
3ba80000
bdbd3000
3c5f0000
3e211000
bc298000
bd876000
3d30e000
3c118000
3ad00000
bb160000
3bc20000
3e05a000
bdab6000
be474000
3ca8c000
bbaa0000
3d6aa000
bc270000
3dce1000
3d716000
3e31b000
3af40000
be06f800
bdc9c000
3d94b000
3cc10000
be06a000
3dc9a000
bd7ac000
3dce8000
be371000
bcb98000
3e7f4000
3d0b8000
3e0a7800
3d682000
3c1d0000
3b2a0000
3c760000
bd574000
be391000
bd5a0000
bea12800
3d328000
3d8d4000
be2a5800
3e0bb000
be05b800
3da71000
bdf37000
bd85c000
bc318000
be906400
bd57e000
3e2db000
be292000
be21e800
3dff5000
ba600000
3e79a800
3deb9000
3d5ee000
3c180000
3a680000
bb240000
3b850000
3c4b0000
3cc8c000
bdcea000
be8bbc00
bee0c000
be180800
bea1e000
be939000
bb400000
be91b800
3cf94000
bd965000
bc1f0000
3dc40000
3de94000
3e2c9800
3cd8c000
3e61e000
3dc04000
3dc81000
3e236800
3dcf6000
3c8f0000
bd020000
bc7c0000
3bc30000
ba180000
bae00000
3cf84000
3db27000
bd43e000
bc1d0000
bf052400
be784800
beb64000
bf241800
bee31c00
bed8cc00
beb62800
bdd27000
3cc58000
3d176000
3e43a800
bcbf0000
3e257000
bde5f000
3db0c000
bd99d000
bd248000
3ccd4000
3da8b000
3d4c6000
3ba40000
0
bbbb0000
ba400000
3cac8000
3c9d8000
3b220000
bd873000
bdc4e000
be042000
be5b2000
3e5e0000
bd28c000
3c510000
3e7f1000
bde22000
3d0f0000
be5d4000
beacdc00
bd2d4000
3da5b000
3e030000
3c170000
3d352000
bd736000
bdcc8000
bcca0000
bc128000
3b950000
bbb00000
bb9f0000
3b440000
3b0c0000
bcd80000
3e0a1000
be54b800
3e6b4800
3e631800
3e83b000
be339800
3e814400
bd126000
3e167800
3db7f000
3e464000
3d88d000
3e156800
be08d000
be534000
3caec000
3e3ce000
3de65000
be3ac800
be0a5800
3c030000
bcc80000
3c318000
bb5e0000
3c348000
bbdc0000
bbe40000
3d81a000
3eb09400
3e3e2000
3dc5b000
be192800
bca98000
3c8e8000
3df92000
3d888000
be3da000
3e3db800
bd546000
3de10000
bd6f4000
3d9ef000
be671000
bcb60000
be35b800
be28d800
be5f1800
bdad9000
bd192000
bd452000
bbcf0000
bc2d8000
bb3a0000
bc538000
3c718000
3e378800
3e8a4c00
3e424000
bd112000
3e9c4c00
3e4f8800
3d73c000
3cbc4000
3e370800
3de6b000
3e2b3000
be047000
3dbd2000
3e3af000
bdba1000
bd0a4000
be578800
be8d5000
bd929000
3cd74000
3c954000
3c150000
bc8c8000
bb960000
ba380000
3b5a0000
bafc0000
3b7c0000
3dcc8000
3da96000
bc924000
3b8a0000
bbdd0000
bdc12000
3d803000
3c1d0000
bcda4000
3da0c000
bddc7000
bda10000
bc940000
be5cd000
bcfe0000
be43e800
be1b0000
bd4e8000
be254000
3c5f8000
3da24000
3dbef000
bb2a0000
3bac0000
3c370000
bbdf0000
3af00000
3a980000
3cd80000
3e00f800
3d9f6000
bd444000
3e487000
3e902800
3da5a000
3d979000
39e00000
bcc58000
3e693000
be528800
3e020800
be617800
3e7db800
3d843000
be8d1c00
be894c00
be707000
bd52a000
3cde8000
3ca5c000
bbea0000
3b580000
39b00000
38800000
b9e00000
bb4c0000
bc630000
3bd50000
bd99a000
bd6a6000
3ce7c000
3d0a4000
3dacc000
bbb90000
be261800
3d712000
3d05e000
bd973000
3de1d000
3daab000
3e171000
3e00f000
3d074000
3d0e6000
3c9fc000
3c288000
3a800000
bb8e0000
bc480000
3b7a0000
ba9c0000
bb2a0000
bb740000
3aa00000
bc0e8000
badc0000
bbf80000
39900000
bafc0000
3c980000
3b260000
3d082000
3d120000
3c228000
3c6e8000
bb540000
3bec0000
3bc20000
3d530000
3ddc7000
bc208000
bc350000
3ba40000
3ba30000
ba380000
bad00000
3bb50000
3b440000
bc238000
3a500000
3b700000
bb680000
bbae0000
bb980000
3c5f8000
3c138000
3bca0000
3c198000
bbae0000
3bbe0000
3c068000
bb940000
3b340000
3b830000
3bb40000
bbdc0000
bc200000
bc288000
bb500000
3c010000
b9d00000
3c140000
bc130000
3c280000
bb830000
bbe70000
3c330000
3c030000
ba940000
bbed0000
39c00000
bc038000
3c030000
bc8e0000
bc570000
bcf18000
3a600000
3af00000
bc828000
bc8a0000
bcc38000
3c8e8000
bcd64000
bd89a000
bd040000
bc4f0000
3a900000
bbd80000
bc810000
bd104000
3c170000
bad40000
3b520000
3a980000
bb2e0000
bbf90000
ba780000
3c570000
0
bb380000
bb6a0000
bb320000
bcec0000
bccf0000
bb120000
bc83c000
bca3c000
bd294000
3d3d8000
bd608000
bd18e000
bd190000
bd166000
bd810000
bd754000
3b620000
bcd00000
bd228000
bc498000
ba300000
bb320000
bb300000
bbd40000
bbae0000
bc0c8000
bb300000
3b660000
b8c00000
3c720000
bc598000
3d342000
3cec8000
3d8ed000
3d2b6000
3e21c000
3e08d000
be3c1000
becbbc00
be8d2400
be12a000
be634800
3c4b8000
be0ec000
bdc4c000
bc7b0000
3d4de000
3dd54000
3d1a2000
3da6a000
3ca78000
3b460000
bb080000
3b810000
3a100000
3ca24000
3c738000
bdd03000
ba940000
bbf00000
be2a7800
3e083800
bc848000
be32f800
bdce3000
be157000
bea51800
be13f800
bdb14000
bd95f000
bd180000
bd845000
3e007000
3d7b4000
3ddb7000
3e890400
3dcf8000
3da59000
3c388000
3be50000
bbba0000
ba100000
3b520000
3d118000
3dc95000
3dd5f000
3d8d4000
38c00000
3d484000
3dcb6000
be931000
3c9cc000
3d428000
3dcf0000
3d911000
be92f000
bdbf8000
bdb73000
bd546000
bc884000
3e034000
bdc19000
bdb3f000
bd64e000
3da78000
3dc8d000
3d14c000
3be90000
bb0c0000
bb2e0000
bc1c8000
3c930000
3c5c0000
bdced000
bd1b4000
3e254000
3d32a000
3d41c000
3c820000
3e6bb800
3e3af800
3e5bb800
3e04d000
3e01b800
3e018000
3e84b400
bc6c0000
bbfc0000
be14b000
bde11000
bc498000
bdec2000
bd44c000
3d910000
bcae0000
3bc30000
3be60000
3c010000
3d2ee000
3df7c000
3d848000
be459000
3e620800
3cff4000
bc580000
3d5b4000
3dd04000
3d63a000
3dc5a000
3e3fc000
3c300000
3cb4c000
bcd54000
bda90000
3dd58000
bc5a0000
3d3fe000
3e540000
bc828000
bd160000
be45d800
bc7e8000
bd923000
3b1c0000
bd05e000
b9a00000
3d636000
3cc90000
bc6b8000
bdb10000
bda27000
be963c00
3e567000
bd1ba000
3daee000
3e53b800
3ddc2000
3e51c000
3e4bc000
3d835000
3ea36400
3ccd0000
bc770000
3e334800
bd870000
be0dd800
3e25f000
bd1ca000
be2bc000
3c678000
3d728000
3ac00000
3bbc0000
bad80000
3cf8c000
3d114000
3e47f800
bcef0000
3e771000
3e281800
3caec000
3e424000
bc6f8000
3dd52000
3e037800
3d961000
3d9cd000
3e00a800
be9e9400
3e320800
bb950000
bdecf000
bd83a000
bbbd0000
3d9b9000
be394000
3dfef000
3e48e000
3cf10000
3c040000
3b340000
3c108000
bb660000
3dd66000
3d770000
bce38000
3e203800
3ded0000
be05e800
3de2e000
3e350800
3d898000
3e0d6800
3d7fe000
3c458000
be9a5000
3c1e0000
be753000
3d728000
3dbe7000
3d91c000
3c0b8000
bbe00000
3e127000
3d932000
3d7b6000
3c3c0000
3cf78000
bbe70000
3b5e0000
bc7a8000
3e2af800
3dc3b000
3e120000
3d8ab000
3e56e800
bd00c000
3e543000
bd69e000
3e814c00
3ce68000
3e010800
3c918000
3d87c000
bdb26000
3e8ec400
bcea4000
3d42c000
3db77000
bca0c000
3e67b800
bc984000
3e5da000
3e105000
3d9e0000
3d208000
39c00000
3c944000
3d0d6000
3dab7000
3e552000
3e8f8800
3d5b6000
bd0b0000
3ced0000
bddb6000
be338000
be124800
beb8fc00
be626800
bce88000
be13f800
bcc1c000
bdd29000
3dff3000
3e3ce000
bc098000
3dbae000
bca5c000
3e6a3800
3cf9c000
3dca1000
3e24c800
3d90f000
bb9a0000
3ac40000
3ceac000
bd1fe000
bd72c000
be320000
bdd77000
3ccdc000
3db39000
3c540000
bd638000
bd988000
be27c800
3d262000
3e47c800
3cfbc000
3d837000
3c150000
3d19e000
bd698000
bc078000
3cfac000
3cb88000
be4f8000
beb15000
3daf1000
3d6fe000
bc680000
bbce0000
3bd20000
3c8fc000
bca14000
3d3d6000
be433000
bd192000
be0ba800
be9d6400
be1ee000
bd076000
be264000
bd5f6000
bd1de000
bde3c000
3d2a6000
3d5d6000
3df23000
bdb55000
3d08a000
3d7c6000
bd8cb000
be6f5000
bde11000
be27a800
3d6de000
3ca14000
3c3f8000
3b320000
bae00000
bc964000
be30b800
bd9cc000
bde22000
be066000
bcc74000
3d8a4000
bca14000
3aa40000
3e2fd800
3c4b8000
bde2e000
3ceb8000
3e808400
bdf31000
bcfb4000
3db11000
3d0d6000
3e3a9800
be895800
bd4d2000
3e09d000
3ce54000
bec6d800
bd87c000
3a900000
3ba20000
bbdc0000
bc108000
bdcf3000
be0b6000
bd9be000
bd9d5000
be31d800
bdfe9000
bba90000
3ce24000
3db0f000
3cec0000
3c4b8000
be3f2000
bd807000
3d94d000
3ddbe000
3dcca000
be067000
3c84c000
bd922000
bbbf0000
be913000
3dacb000
be9bd000
bcbc0000
3ca7c000
bb460000
bba20000
3bed0000
3e1ac000
be47d800
bd55a000
be756000
3d9fb000
3d498000
bd4c2000
3cd34000
3a980000
bd1b2000
3e0dc000
bc738000
bdbce000
3e05a800
bc4b8000
beb29400
3b700000
bdace000
3d322000
3e58a000
be2eb000
3ea7ec00
3dac1000
3cf08000
bbc40000
3b1a0000
bb440000
3bfe0000
bd6bc000
b9900000
bd09e000
bd0c8000
3d8a0000
bd891000
bd3a6000
3de80000
bd24c000
be1ed800
3d038000
3aa40000
3dca9000
bdb66000
bd826000
3e36c800
bcfa8000
be498800
bd348000
bc3c0000
bd831000
bd60c000
3e886400
3dbc1000
3cfa8000
3b8c0000
bc5c0000
bb540000
be8c1000
bb960000
3d532000
3dda6000
bda91000
3dc63000
bcc24000
bd3fc000
bc5d0000
3e0d1800
bdd6b000
bdacd000
3b810000
bcbdc000
bc6c0000
3db2e000
3e813000
bcb0c000
3e0ae000
bde86000
bddd6000
be2e3800
3dda9000
bb080000
bba00000
3b850000
bc360000
bd16e000
be902c00
be91bc00
3cad4000
bcfcc000
3ca14000
3e15d000
bdd27000
bdbbd000
3dc8a000
bd820000
bd55c000
3cd98000
bd6fc000
be2b0000
be0e6000
3c098000
3cabc000
3ddd3000
be520000
3d5d6000
3ea9c000
bd708000
bd12a000
3ad00000
3b0a0000
3ba10000
3b900000
bd88d000
be07f000
bd080000
3e1fc000
bda86000
be543000
be3bb000
3d9b1000
3e6b9000
be091000
bb8f0000
3d9e3000
bd076000
be1f7000
3d2f0000
bd841000
be874000
bd572000
be111800
bd951000
3db46000
3e2ab000
3de13000
bd7ae000
bdc0a000
3b240000
bafc0000
bb5c0000
bc7d8000
bdc79000
3e09c000
3bcc0000
3dde0000
bd4a0000
3d9a1000
bbe50000
3d1f8000
3cd88000
3e18b800
bdcfd000
3e1f0800
3d628000
bd0ac000
3c470000
ba100000
be8bbc00
bb2e0000
be620000
3dc50000
bd944000
bd22c000
bdbcd000
bd9cf000
bc510000
3b2a0000
bbf20000
ba800000
bda3e000
bd9d8000
3e172800
bb200000
3d5f6000
3d84e000
bcb38000
bcc94000
3d046000
3b360000
3e2e3800
bdfb2000
be4d0000
bda8c000
bd965000
3d82b000
3dd9b000
3e176000
3db18000
3e9fbc00
3e6ce000
3e78d800
bdb31000
bd50c000
bc3e0000
bba60000
bb830000
3b850000
3b320000
3e4ba000
3e3aa800
bdd94000
3dbaf000
bbc90000
be5ec800
3d668000
3df13000
be21f000
3cb14000
bb930000
3dbfd000
3d877000
3d19a000
be3bc000
bd38c000
bd9d9000
bc4f0000
3ce20000
3e1a4000
3e322800
bdd22000
bd076000
3b560000
3b400000
bc038000
bc0a8000
3bca0000
3da3e000
3e079000
3df0e000
3e10d800
3e873000
3e515800
3cd98000
3e275800
3e13a800
3a100000
3e576800
3e9d9c00
3e861c00
3cdcc000
3d448000
3eba2400
3ccf8000
3deb0000
be358000
bc7b0000
3dbde000
bc740000
bce84000
bbce0000
bbd70000
bb4c0000
3bbb0000
3bae0000
3b5c0000
bd368000
3e1e2800
3ea0a800
3e85dc00
3e92f000
3e59b800
3e4e3800
3e6cd000
3eb63400
3ef0bc00
3e5e7800
3ec96c00
3ec97400
3e8de800
3e66a800
3ec60000
3e5e0000
3d837000
3af40000
3caf4000
bc010000
bb160000
bc108000
3abc0000
bb9b0000
3c178000
3bf90000
bb900000
bbc20000
3c678000
3d8a0000
3d89a000
3cdcc000
3ddbe000
3d829000
3dfe5000
3dcbc000
3e336000
3e1b5800
bb560000
bb1e0000
3cb44000
3c8d4000
39d00000
ba500000
bbb90000
3ad00000
3bc20000
3bef0000
3ac40000
bbb40000
3bee0000
bb4e0000
bb9a0000
bba30000
3c340000
39000000
3a480000
bc550000
3bf00000
3ad00000
baec0000
3bc60000
bb140000
b8c00000
ba480000
3c2a8000
3c0a8000
3b780000
3c250000
bc180000
3a580000
bb280000
3b200000
bb9e0000
ba280000
3b340000
bc370000
ba400000
bb060000
3c128000
bb8c0000
3b820000
bb0a0000
3bb80000
bc7f8000
bc88c000
bcb6c000
bb910000
3b4c0000
bb2e0000
bc660000
bcb14000
3c80c000
3c2e0000
bca14000
bc220000
bba70000
bbd60000
ba840000
bbd50000
bb420000
ba300000
bbc60000
3b420000
bbd50000
bc160000
3c558000
3b740000
bb900000
bbbf0000
3b4e0000
bc648000
ba580000
bd13c000
bd3c0000
bca58000
3bdb0000
3cd78000
bd53c000
be070800
3df37000
3d9f1000
bdbc8000
bd0a6000
bda61000
bb8a0000
bbe30000
3b8b0000
3b7a0000
3b040000
3a300000
bb9b0000
3b1c0000
3bb00000
3c1e8000
bc3b0000
3c378000
bc350000
bd948000
3b420000
0
bd124000
bde87000
bdc48000
bd4fc000
3e204000
3d0c8000
bd7c8000
bd96b000
bd94b000
be641800
bde6c000
beb5d800
be539000
be3b5800
be296800
3cf80000
3ae00000
bc568000
3c0b0000
bb3a0000
bc460000
3a180000
3c100000
ba800000
bc7c8000
3d3fe000
3d860000
3d52a000
3dcee000
3e1bc800
bcb18000
be44a800
bdb97000
3de14000
3e6ad800
3e0a0800
be46c800
bcfc0000
be126000
bd814000
3d3a8000
bd9df000
be1cb800
bd86b000
3d022000
3db4b000
3d528000
3b260000
bb6a0000
39000000
bc018000
3c090000
bdc18000
3c1b0000
3dbbc000
3dd18000
3cd60000
3e803000
bd354000
3de71000
3d070000
bcb10000
bb600000
bddf4000
be3f8000
be291000
bd1e4000
bcebc000
3d4f0000
bd25e000
3e373800
bd877000
bd41c000
be00b000
3d770000
bdf89000
b8800000
3c120000
bbb90000
3b040000
3d022000
bcfe4000
3d9c3000
3e52a800
bb0a0000
3bc10000
3daa2000
bdae2000
3dbc5000
3d65a000
be033800
be831400
be3ea800
bdf88000
3dec8000
bd136000
be99c800
3c350000
bd40e000
bc960000
3e343000
be045000
bd102000
3d348000
bc200000
bbc10000
3cf00000
3cb04000
3e68d000
3dfd9000
bc9f4000
3e304800
3c600000
3cd60000
3e40f800
bdd7d000
bd1ec000
3c168000
3e048000
bdee5000
be0f4000
be01b800
3d2cc000
3d879000
3e2b3800
3e69b800
3dc0b000
3dced000
bc0e0000
3e6c4800
3dead000
3d899000
bc610000
bc1d0000
3d42a000
3dc71000
3dd01000
3df27000
be345000
bd900000
3e13f000
3e1ca800
bdec7000
3e856000
3e0a4000
3cce4000
be8b7400
bc178000
be2ff800
3cb68000
be1c2000
3e4a7000
bdb89000
bd08a000
bdb6c000
3d1ba000
3cf48000
bd26e000
3de09000
bdd9f000
3adc0000
3b4e0000
3c9f4000
3c258000
bd406000
3eb83800
3e98c800
be06d800
3dd27000
3c350000
3da4a000
3a9c0000
be1ac000
3e106000
3d5a4000
bea98800
be6ac800
3d1a6000
3e446800
bc9b0000
3dac6000
3e48a800
3df74000
3cbfc000
3ddb5000
bd3b2000
bcdc8000
bdf47000
bbc70000
bb5e0000
3bc20000
3cc94000
bc728000
3de69000
3e575000
bb280000
3cf78000
3e015800
3d37e000
3d956000
3d8f1000
3daf4000
bdb2e000
beaa8800
be0a9800
3db7f000
3e49f800
3dd74000
3e6a4000
bd412000
3be30000
3a8c0000
3d825000
bdbe5000
bd62a000
bded3000
3c4c8000
3b740000
bca6c000
3d610000
3d14c000
3da80000
bd931000
3e508800
be560000
bc038000
bd79a000
bd2c8000
3d953000
3e364000
bdfbe000
befe8400
bd8ea000
3db75000
be161800
ba300000
3d446000
bd364000
3c818000
bcc28000
bd39e000
be56f000
bd642000
bd847000
3b2a0000
3b000000
3c1a0000
3dd3a000
3df87000
bca18000
3e2e8000
3c5c8000
3e21f000
3e200000
3d98d000
3e15f000
bddf0000
3ebdd400
3d0f0000
bf0d6200
be7d9000
3e9cb800
3e26e800
3e174800
bc8f4000
3d1d0000
3e888400
3e594000
be816000
bddc3000
3cb2c000
bce10000
3bcf0000
bc488000
3c8a8000
3cc30000
bd8e9000
3d310000
be249000
bd7be000
bdec9000
be718000
3e280000
be055000
3d3ea000
be0f4000
bf052000
be2e8000
bcfa8000
3ce38000
3d116000
3dac6000
bdf0a000
bd978000
bd328000
bdbf8000
bdcd9000
39600000
3e51a000
3c914000
3b9e0000
3ab80000
bc210000
3c638000
be36a800
bdbbc000
3e0bc000
be2d7000
3e084000
3d8d0000
bdb34000
3e3e6800
3d108000
bd038000
beb36400
bd484000
3cf2c000
3dc45000
3e0b3000
bd1f6000
3e4fd000
3c864000
3d168000
bcfa8000
3cca4000
3d050000
3e392800
bc81c000
bbf70000
bb100000
bb2e0000
3c9d8000
3c308000
bdcf9000
be7b2800
bc6e8000
3ca20000
bd2c0000
bcb3c000
bdcfe000
3d026000
be6af000
be28a000
bb080000
bd12e000
3d264000
3eb0fc00
3bc00000
3d5fc000
3e135000
3d0e6000
3dd0b000
be456800
bd150000
bd8df000
3bda0000
3bf20000
3b180000
bc140000
bb500000
bdd42000
be0c2000
bdf96000
3e51f000
3e253000
bd0c6000
3dc6c000
3c8d8000
bea6b400
bdfef000
bdc5c000
3e12d000
3e4b9000
3d85d000
3e735000
3d1e2000
3e22f000
3e3fd000
3e23d000
be2b4000
be05c800
3e036800
bb4c0000
bd400000
3ba60000
bc1e8000
3b0e0000
3c108000
bde6f000
3e070800
bdd79000
3c0b0000
be6e9800
3dc4f000
be550800
be78b800
3e329800
becce400
3cb60000
3c9ac000
3dd1c000
bb460000
3e6da800
3d50a000
3d148000
3bfc0000
3c6c8000
bc268000
bd860000
3d60c000
bd5d4000
bcb64000
bc2d8000
ba8c0000
3b870000
3c790000
bb320000
bcd60000
3cf18000
be1ef000
3e708800
bcea4000
be938000
be98c800
bdb22000
be370000
3e95bc00
3e388800
bdb9c000
3e85cc00
3cb00000
3e72e000
be1dc000
3c8a0000
be44b800
3d116000
bdea1000
3b4c0000
bd9b7000
bb880000
3c108000
3c030000
3ae80000
3d65e000
3dff8000
3d60a000
3e670000
3dd27000
be7b5000
3d92e000
3b340000
bd6a4000
3e8fc800
be105800
be0b1000
3e3b9800
bbad0000
bddd0000
be073000
3d70a000
3d835000
be84f400
be33b000
ba800000
3d6b4000
be38a000
bbbf0000
bb5c0000
3bd10000
bc188000
3c398000
3da11000
3e1e6800
bdcee000
be3df000
bea1b800
3e58e800
be6fa800
be915800
bdcb8000
bd2cc000
3e3c2800
bd3a8000
3dd5e000
bcfb8000
3d2f4000
bda38000
bd86a000
3d9cc000
3c968000
bd47a000
be193000
be3b0000
bd913000
badc0000
bbb00000
3a700000
0
3bb80000
3df4b000
3dab2000
3c0d8000
bdcc8000
be042000
be8e5400
bdcb6000
bd354000
3e232800
3da0d000
be64c000
3e7f3800
3d430000
bd906000
3ccb4000
bcb1c000
bea5c800
bbb80000
3e681800
bd67c000
bd4c6000
bd8a7000
3e48d800
3c954000
3ca80000
3be20000
bc688000
ba380000
3d382000
bce20000
bdd9a000
be827400
bd3a4000
3e4d5000
3e4be000
3de9c000
bdf8e000
3dd87000
be744000
bd16c000
bd3a0000
3e907800
be253800
3e5bf000
bcbe4000
be01a000
3c9f0000
bdbb1000
3cb78000
bd8cb000
3bc50000
3b520000
3c220000
3c0c8000
bc1c8000
bb880000
bce28000
bdaf2000
be759000
be2f2800
bc1c8000
3e597000
be626000
be472000
3e115800
3d36c000
3d0c8000
3d3cc000
3d738000
3e229000
3ba70000
be0c6800
3d89e000
3e3ed000
be0c9000
3e01d000
3de1f000
3dc98000
bd3ac000
3bba0000
39c00000
3bff0000
3bc40000
bae00000
bcc3c000
bcfcc000
be244800
3e4e5000
3ea0f400
bd88f000
3d40c000
3d90c000
be380800
3e06b800
be74f000
3b080000
bcf1c000
bcd70000
bdcc5000
3c280000
be1b4800
3cc28000
bde5e000
3dae3000
3d8d4000
3cc1c000
3d22a000
3cdd4000
bb870000
3c178000
bbaf0000
3bf70000
bb3c0000
bc428000
bd9c4000
beaa1800
bda0b000
bdb20000
3d0d2000
bd9b9000
beaf6c00
3dbba000
3d9db000
be06a800
3cad4000
3ed4ac00
3db84000
3cb10000
3ea21000
bd8d4000
be967400
be3d9000
bdab3000
bdb39000
bd2ca000
bc3f0000
3baf0000
bbb10000
3bb30000
bc108000
baf80000
baa40000
bd5c6000
be8bc800
be4fc000
bd1c4000
be28c800
bd140000
be58f800
bd5da000
be7a5800
bde33000
3c788000
bd276000
bd4d4000
bd13e000
bd8e3000
bd4aa000
be003800
3b880000
3dcc8000
bcb14000
bb9c0000
3c368000
bb240000
bb5a0000
bb620000
3af40000
bc258000
b8000000
bc298000
bb9a0000
3b870000
bb9b0000
3c010000
3c610000
3c9b4000
3c93c000
3d04a000
3e06b000
bd688000
3ce60000
3df1c000
3e175000
3e3fc800
3d7dc000
bd0e0000
3c138000
3d4c0000
3c7b8000
3b500000
bb820000
ba800000
bab80000
3b340000
3b3c0000
bc268000
bbb80000
3b990000
3b9d0000
bc0d0000
3b440000
3bdf0000
bc5e8000
bb220000
3ac80000
bc188000
bb140000
3a940000
bc170000
3b4c0000
39900000
ba180000
bc640000
3c268000
3c1f0000
3c368000
ba580000
bae00000
3a500000
3b910000
3bc60000
bc0e0000
3bc40000
3be70000
bc338000
ba700000
3afc0000
3ba50000
3b460000
bca8c000
bbd00000
bca44000
bcda8000
bcd08000
bd851000
bc868000
bcae0000
bd84f000
bca48000
bc3c8000
bd0e2000
bd156000
bd456000
bd558000
bc820000
bbb50000
b9e00000
bb890000
3b560000
3baa0000
3b3a0000
bbe80000
ba180000
3b5e0000
3be00000
3ab00000
bb480000
bd308000
bcd7c000
bd8ee000
be1ee800
3cc60000
3d318000
bdf0f000
bdb7b000
bde1f000
bd75c000
bd4d4000
bda59000
bde87000
bdc57000
bdafc000
bcb60000
bb5e0000
bbca0000
3a680000
3bf70000
3bcc0000
3bb90000
bbea0000
3c038000
bc250000
3c4c8000
bc1a0000
bce04000
bdbbe000
be5e5000
be764000
be4b3000
be01c000
bef61000
be2da000
be8dc000
beb2f800
38000000
3bd20000
be8c0400
be428000
bdc36000
3da82000
bb8e0000
bdd5c000
bd302000
3c068000
bc658000
bbc90000
3b960000
bb9f0000
bbbc0000
bd1b0000
bc178000
be024000
be54c800
be71b000
be715800
be4ba800
3de52000
bcbf0000
be465800
3e011800
3bdd0000
be001000
3d5b0000
39000000
3debe000
bd814000
3d46a000
be80c800
bdbd1000
be338000
3de06000
3d700000
bd326000
bb520000
bb640000
bb240000
bbe50000
bde2d000
bda06000
be839c00
be5aa000
be1ef000
3b7c0000
be471000
bdde8000
3d00e000
be45d800
bdabc000
3dd41000
bcd4c000
bd100000
beb98400
be4b2800
bd46e000
be085000
be919c00
be8fec00
be8db400
be6b7800
be05d000
bdaff000
3abc0000
3c0b8000
3c6c0000
bd29c000
be409800
b8000000
bd95e000
bd54c000
bd208000
3d2f2000
bddbf000
bd476000
3e2d4000
3d212000
bc078000
be741800
bebee000
3e476800
be8ab800
3e0f0000
bdeac000
3de79000
3d6c8000
bdcb4000
bdaaf000
3c884000
3be60000
3c5c0000
bc2f0000
3b780000
3cbc0000
3cff8000
bdd60000
3e836800
3e1ce000
bd878000
3c9cc000
3d48e000
bc83c000
bc7b0000
bc824000
be59c800
be7af800
bddae000
bd138000
be285000
3e087800
bdfea000
be0b9800
3bd30000
3ea10400
3f03f400
be3a1800
3c558000
3d4a8000
3c730000
b9f00000
39f00000
3d94b000
3da4a000
3cfac000
3e46a800
bd94d000
be58b800
bd45a000
3da6a000
3db12000
be601000
bde3c000
3de09000
3b300000
3e05c800
3ddf5000
bd078000
3cf10000
b9200000
3e72f000
3cfd8000
bd823000
3df19000
3e8b7c00
3de80000
3d380000
3c268000
bbfc0000
3c148000
3de8d000
3dadc000
3d3b0000
bd966000
3d21c000
3b2c0000
3def5000
be3eb800
3dba1000
3e9a9000
3e9f1400
bbd40000
3d1c6000
bcfd8000
3dc37000
3e578800
3e4a6800
bce74000
3e321000
3e1ef000
3e251000
bddca000
3ecc8800
3df52000
bde0f000
3cbf0000
3ac00000
3c288000
3e23a000
3cc68000
bdeb9000
3dda3000
3e838400
3e335800
bd3f0000
3e40a000
3d983000
3d87e000
bd436000
3e27c800
3c7a8000
3e397000
38c00000
3dd9d000
3e750800
3e38c800
3e88e000
be034800
3e26b000
bbb00000
3eb2a800
3e6e5000
3dec2000
bc368000
ba180000
3d09a000
3de53000
bb200000
be381800
bd070000
bd27e000
be05d000
be06e800
3e76a800
bd53a000
3e4c2800
3dc3f000
bdb22000
3daab000
3de62000
be6dc000
bd1b0000
be36d800
3ce10000
3e14a800
bcdac000
3e3b4000
3e719800
3d81d000
3e4e0000
3e363000
bca88000
3adc0000
3c81c000
3dc19000
bd784000
be8e9000
bbdb0000
be2e0000
3e3d4000
3d5f6000
3e006000
3e2c7000
3e685000
3e73a000
3cdf4000
bd0b2000
bd502000
be4fc800
be556000
ba500000
be3fa000
be958000
bd000000
bcb08000
be86d800
be6f6800
3e660000
3e716000
bc260000
3c050000
3c3d0000
3d5ec000
bd5d0000
be00a000
3d272000
3dd07000
3e36c800
3cf08000
bd4a0000
bd63e000
3e403800
3e800800
be9eb400
3da04000
be039000
3e2c2000
be5e3000
bdb1b000
3dcee000
be286800
3e29b800
bd69a000
be1fc800
3d65a000
3d84e000
3dbdc000
bbc80000
bbaf0000
3c3e8000
3d1cc000
3c880000
be3ce000
3e94a800
be1f4000
3d2d0000
bdcc4000
3de85000
3e2b8800
bdaa2000
3c8e8000
bc868000
be2ec000
bc398000
be063800
3e91f800
be3e7800
bdba5000
be1aa000
3e01e800
3c8b4000
bc9a4000
3dfda000
be04b000
3c128000
3c018000
3bfd0000
3a380000
bba80000
bdb96000
bd230000
3cae0000
3d45a000
3d356000
3cd18000
3e8f4400
bd6ca000
3da70000
3d8dd000
bdb18000
3d840000
3e50b000
be584800
3e031800
bd116000
3e45e000
3dd22000
be0df000
be77c800
bb870000
3e799000
be6cf800
3d8c2000
3b600000
3c0b8000
bbd30000
3c938000
bd5c0000
be0b4800
bdc5c000
bd962000
3dc7a000
3e486800
bdbcd000
3d3fa000
bd064000
3e8c3c00
bd8dc000
be89e800
be5e1000
bd686000
3ddbe000
bd23a000
bdc14000
be2cb800
3d624000
bd034000
3d90c000
be221800
be66b800
3db7e000
3cf9c000
3c458000
39f00000
3d552000
bdbc7000
3b7e0000
3e2b9000
3df8b000
3e84dc00
beabdc00
3dfb1000
3e4e6000
bd884000
bed13800
3e2ac000
3e19f800
3e7df000
3df45000
3e0cb000
bdc7b000
3e46e800
3de2f000
be04b000
3d536000
3e7ec000
3d408000
be1db000
bb760000
3ca4c000
bb100000
3af00000
3d428000
be31a000
bd8cb000
be87bc00
bd0be000
bd8ab000
bce4c000
3da1b000
be5c3000
bcd7c000
3e133800
bdb5e000
bc680000
bddc9000
bda99000
bd708000
3c130000
bbb10000
3e008800
be415800
be3a2000
3ebe9000
be1e1000
be5fa800
bb6e0000
bb460000
3bf60000
3c388000
3d6ce000
be148800
3da65000
be309000
3e197800
bdd10000
be035800
3cd90000
be7d1000
be664800
bdc33000
3e398800
3d840000
3d4a6000
be2a2000
bb060000
be99e400
bc710000
be624000
be78e800
bde15000
bd690000
be549800
bd7c2000
3c090000
3aec0000
bc208000
3d2d6000
3d44a000
bdf7e000
be88dc00
be0fe000
bdcef000
be11f000
3d4b0000
be483000
3d8d4000
3d6d8000
3e4cf800
be2dc800
bda8e000
3cda8000
bd8ea000
3dbf4000
bd796000
3d8a8000
beb4d400
bb880000
be21b800
beced000
bc8ec000
3d11c000
bba40000
3c168000
3c070000
3c0d0000
bb3a0000
bda09000
bf07ba00
3d8cb000
bcb04000
be805400
bba20000
3e492000
be866000
3e42e000
be06a000
bdb70000
bd292000
bccd4000
be5f3000
bd400000
bdf54000
bc6e0000
bd25a000
be94cc00
be6cc000
be15f000
3d674000
3d8c0000
bd664000
3c158000
3c3a8000
b9800000
bc2e8000
3c708000
bee38c00
be562800
3d664000
bd6b0000
3d534000
3e31f000
be0ff800
bd7f8000
bd7c2000
bdd84000
bdb28000
be10e800
3e942000
be1f3000
3e1f2000
3c370000
be082800
bd06c000
3d907000
3e230800
3de71000
ba840000
bb0c0000
3bd20000
ba200000
38000000
bb870000
3c320000
bd0ea000
be5be000
3dd27000
be004000
bbe00000
3d400000
3d43a000
bcbd8000
3e226000
3e007000
3d853000
be369000
3d857000
3c330000
be5bb800
3d2cc000
3d2ce000
3d2f0000
bdc8f000
bd644000
3d48c000
bd354000
3bab0000
bba80000
bba30000
3ba30000
ba080000
3baf0000
3dace000
bd95b000
be440800
be35c000
bc904000
be8a2000
3c058000
bcd68000
bd378000
bdb09000
bcdf8000
3d40e000
be401800
3b960000
bbdb0000
be39c000
be44c000
3d036000
3d8f8000
3cec8000
3db13000
bd68a000
3b1a0000
bb720000
bbcd0000
bb9b0000
bbb40000
3c6d0000
3dbad000
3ac40000
be58b800
bdcca000
be3a9800
be27c800
be19c800
3e206000
be21e800
bd825000
bd0ea000
be5e6800
3d80d000
3e9f8800
3e09d000
bdaa8000
be07c800
3d772000
3d552000
3cd34000
3d8a9000
bc068000
bbe60000
bc200000
3a280000
bac80000
3bd90000
3a600000
bc320000
be071800
be976400
be419800
bdb5f000
bd9a4000
beb9f800
bdc1f000
3e646000
bd98d000
be53b800
be78f000
be24b000
be2ae800
be47c000
be445000
be194000
bd00a000
bcd28000
bd536000
3c280000
3c200000
3a9c0000
bc448000
bbd00000
ba300000
ba680000
bba30000
bac80000
bacc0000
bbb50000
bc8f4000
bc880000
bbef0000
3d30c000
3bd50000
bc328000
3c628000
bbd70000
3cbf0000
3cba8000
3d164000
3d174000
bb960000
bce1c000
3b0a0000
3d4d2000
3cad8000
bb900000
bb820000
3b340000
3b920000
bb840000
39d00000
3aa40000
bbbb0000
bbac0000
bb3a0000
3a000000
bb890000
3bf30000
bc3a0000
3c618000
ba400000
bb1a0000
bc3e0000
3be90000
3c5c0000
3b8e0000
3c0b8000
3bb80000
ba180000
bb3a0000
bc208000
bb280000
bba40000
bc4f8000
bb8f0000
3c290000
3ab80000
bbfb0000
3bbd0000
bbe20000
badc0000
39a00000
bb950000
3b970000
3c668000
3b930000
3ba90000
39e00000
3ad80000
3a8c0000
3cb14000
3af40000
3c2b0000
3c540000
3bd50000
3c3b8000
3d096000
3d37e000
3df62000
3bce0000
3b1a0000
3be00000
bbeb0000
bb5c0000
bb240000
3ad00000
bab40000
bbf50000
baac0000
3b2e0000
3bd50000
3bd70000
3cd28000
3cfec000
bd1a6000
bd80e000
bdb8a000
be337800
be752800
be2e8800
bdb56000
3d650000
3e98a000
3e8a2800
3de6b000
3d3ea000
3df4f000
3dd98000
3c788000
bc88c000
bc2c8000
bc460000
bc268000
bc0f8000
bc020000
bc0d8000
bc348000
bc8a8000
bc700000
3c620000
3d0b0000
bd1ac000
bd941000
be29a000
be6b4000
bec71800
be236800
3b8f0000
3a600000
bdd8e000
3ca90000
3e0c0800
3d740000
3e3bb800
3eb5a400
3e067000
3d2fa000
3d0f8000
3d17a000
3d907000
bc1a8000
bc060000
3a380000
bc8e0000
bd00c000
3b8b0000
3d04e000
bb910000
bd448000
bdae2000
be2cd800
be4c5800
beb42000
beaa2c00
bc994000
be0bf800
be056000
be58e000
3d38c000
3cdd8000
bdd4a000
3dc7d000
3e2a1800
bc824000
3efa3c00
3d824000
3e593800
3dfc9000
3d894000
bb000000
3b500000
bc1e8000
bd926000
3b640000
3d6fc000
be1b1000
bd4a0000
bdde3000
bdbbf000
3dcaa000
bde33000
bbda0000
bdd73000
bd9e6000
bd63e000
bbac0000
bd9bd000
3db35000
be0c7000
3e6e8800
bd12c000
3db02000
3e54e000
3e724800
3dc57000
3e390000
3db9a000
bc038000
3bf50000
bb500000
3d5e4000
3c620000
bda41000
be780000
3daa1000
be24e800
be640000
3da77000
be5c3800
3e998400
be377000
3dfea000
be365000
3cbd0000
3e934c00
bb500000
bdf30000
3e93a000
be2dd000
bd8c4000
3d108000
3ecff400
3e88ac00
bce7c000
39b00000
bb870000
b9b00000
bcf44000
bb600000
be367000
3b830000
be677800
3ddc5000
bdfd8000
bd34e000
3de30000
3c994000
bce90000
bbcc0000
3d923000
3e7cf800
bd792000
3e0a8000
3e565000
3e0e1800
3dfcf000
bdfc7000
3ec72400
3dabf000
3dc26000
3e0fa000
3c540000
bc2d0000
3bae0000
3a600000
bca08000
bde41000
be4c0800
bdfda000
3d53e000
be0e3000
3cd90000
3c7f8000
be615000
bda86000
3e341000
3bee0000
3deae000
3c96c000
3dae0000
bcadc000
3d920000
3e0ef000
3d1a4000
3d8c6000
3eb98000
3c970000
3e623000
bd87a000
bd9a0000
bb5e0000
bbe80000
3c270000
3b380000
bd210000
3d84d000
3c84c000
be1d3000
bc460000
3ae00000
ba800000
bd6e6000
be3ad800
3d116000
bd31c000
bc2d8000
be20c000
be678000
beb22400
bd08c000
3e6b7800
bd833000
3d98d000
3e064800
bdd29000
3d63e000
be8b6400
be161800
3be60000
3c1e8000
3c390000
3b020000
bcdb0000
3d1ce000
3d2b6000
bdbeb000
be129000
bdd62000
3e415800
be099800
3d064000
3d991000
be24e000
be3b5000
beaffc00
be99e400
bf331000
bf2ab600
bf73ce00
bf1a6000
bedafc00
be35b000
bedf3800
bea16000
be3a8800
3b6a0000
bb040000
3b000000
bc108000
bb900000
bd4c6000
bd2ea000
bd4d8000
bdcff000
3d630000
be16b000
be3a7800
3dd1f000
bdafd000
bc828000
3d8ed000
3dd25000
bdd13000
3d0aa000
bc4f8000
be8e0000
bd002000
bf311400
bf0ec800
beb02800
beea8000
be94e400
bd804000
ba280000
3c1a8000
3be50000
3b400000
bc198000
bda86000
3ccf4000
3ce08000
bcfb4000
bd4e4000
3e64c800
3d87b000
bd8f0000
3e08e000
3e1db000
3e6a4000
3d64a000
bdc8c000
bd84f000
3cc14000
be246000
bed08800
be5dc800
bea54c00
bf118a00
be9e6c00
be686800
bda4c000
bcf34000
3bad0000
ba480000
3a600000
bc210000
bde42000
3c83c000
3da28000
3dff4000
3e198800
be9dc000
3c788000
bd0aa000
be381800
3e371800
3e146800
bd44c000
3d210000
3c1f8000
3ddf6000
3d7e4000
3e2cc800
bd47a000
bd476000
bdf2c000
be0c8000
be76a000
be147000
bd9a5000
bb400000
3aa00000
3bf70000
b9800000
bd358000
be1ca000
be82f800
bdc7c000
3dd5e000
bcf1c000
3e720000
3e399800
3dc06000
3c964000
bdc06000
3c828000
bc470000
bd332000
be5dc800
3c1b8000
3d25a000
3cf88000
bde7e000
bd0c0000
be213000
bc018000
bdfe0000
bd60c000
bba00000
3bdc0000
bc1c8000
bbdc0000
bce44000
bd8e3000
bd3dc000
bd0aa000
be3c1800
3e2a3800
3cfac000
3e3be800
bd85c000
3e496000
3ca08000
be40c000
3e044800
bd28e000
3db78000
3e88d800
be159000
3e35a800
3e218800
3dbd8000
3da5d000
be12c800
be111800
bd7b2000
bc598000
3b6c0000
3ab40000
bcc48000
3d93b000
3d870000
bb220000
3bd40000
3e313000
be33d800
bdd1a000
3ddc2000
bb9b0000
bd034000
bd34e000
3b2e0000
3d436000
3d568000
3deb3000
be0d9800
3bcd0000
3dee1000
bd862000
bd8d5000
bdbb5000
be6c7800
be75e800
be198000
bd7e8000
3bdd0000
bb880000
bd0d2000
3e362800
bdbbc000
bd9ef000
be223800
3d7ac000
be5be000
be0ad000
3df75000
3d871000
bd53a000
be271800
be547800
3d6bc000
be705000
3c848000
3e9d8400
3e04a800
3e1b5000
3bb40000
3e5c9000
3da1b000
bdb44000
bde6f000
bc170000
bc100000
3a080000
baa00000
bc87c000
3c4a0000
3e405800
3d9c2000
3c358000
3e8c4800
3d56c000
3c190000
3d984000
bed8bc00
3d4aa000
be0cc000
3db54000
3e76b800
3e9c3400
3bba0000
bd0de000
3c3e8000
bd754000
bcdc8000
bd6c6000
be1ea800
be443000
bd824000
bc498000
3bab0000
bb240000
bbc90000
bbed0000
3d924000
3e35f000
be3d5800
3dbc8000
be0b4800
3e31c800
3d4fc000
bd0aa000
3dd95000
3ec36c00
3da4c000
bda04000
bcb88000
3d8de000
be234000
3de62000
bcbc0000
bd906000
bd8ee000
3e6de800
be570800
ba280000
bd568000
bc99c000
3b870000
b8c00000
39e00000
bb160000
3da11000
bb1c0000
3ea2c800
3db7b000
3d6dc000
bda48000
bc8f4000
3cec8000
3db0c000
be567000
3df16000
bddbb000
3dd3c000
be6df000
3e886000
bd264000
3d710000
3d1f2000
3daa9000
3e823400
be354800
bd3e8000
bc8c4000
3bbc0000
3bb30000
bbf90000
bc108000
bc328000
be07b000
3e0cc000
bdd83000
3d73e000
3e0cc800
be3b7800
3e53e000
3df71000
3c8f0000
3d75c000
3e241800
3d436000
bd308000
3e227000
bdeb2000
3b740000
bc118000
3e4ea800
bd59c000
3e42e000
3c998000
3dea7000
3aa40000
bbf70000
bc048000
3c578000
bb8e0000
bc82c000
bd53e000
3e311000
be4ea800
bd308000
bdd55000
3df42000
bd2d4000
3da3a000
3c6c0000
3ec07c00
bd88e000
3e3a6000
3d560000
3df85000
bda4a000
3d85b000
bd560000
3d0a0000
3d248000
be0bd000
3dde6000
3cbc8000
3c258000
bbb60000
3ad00000
3c3e8000
3c148000
3c580000
3d3a8000
3dc86000
3e9ad000
3d817000
be007800
3df34000
3e150000
3e157000
bd911000
3d3ac000
bdf80000
bd92b000
bd2bc000
3de4f000
bd794000
be89dc00
3d416000
3e4a4800
be0fb000
bd3cc000
3d070000
bb720000
bb810000
baac0000
3c140000
b8c00000
3b000000
3c410000
3b500000
bd252000
bdd52000
bc3e0000
bc81c000
bdc7b000
3c208000
3b040000
3e86e000
39200000
bccec000
3de56000
bb2a0000
be934800
3e2b1800
3e4c1800
3af00000
3dd11000
bc9ac000
3d164000
bd216000
3d122000
bbda0000
3bbf0000
3ba20000
3c180000
39d00000
bbac0000
3c478000
bd024000
bd2a0000
3d819000
3e06e000
bd98a000
3e758800
be4a1800
be984c00
3dc3d000
3cda0000
3dd79000
3d142000
3e4ce000
3e92f000
3c3a0000
3e6d5000
3d812000
3e28d000
3e418800
3d776000
3d1a0000
3a840000
bc038000
3b040000
3c358000
3bef0000
3c400000
bbfa0000
bba10000
3b880000
bc110000
bdce4000
be18a800
bd642000
bd4d0000
bd830000
3de2f000
3db47000
3e2a3000
3ea1bc00
3eafe800
3df82000
3c3a8000
3d9f9000
3d258000
3d090000
3c608000
3b4c0000
bc120000
bb950000
3bda0000
bb830000
ba300000
3c660000
bc4c0000
3c118000
3b540000
3bab0000
3c1b0000
3bc80000
3a380000
3aa00000
bc058000
3bc80000
baec0000
bc0f0000
bc360000
3b500000
bbf60000
bbdf0000
3c0b0000
bc018000
3baa0000
bb1c0000
3c2c0000
bb890000
bc500000
3b4e0000
ba500000
bb1e0000
3c038000
3ba10000
38c00000
bba10000
3bc10000
3c248000
bbb00000
bb9a0000
3b160000
3b320000
3bb90000
3b640000
3c3d8000
3c278000
bba10000
3b0e0000
bbb40000
bbf60000
3bb80000
3b360000
bb3e0000
3b6e0000
bb280000
b9200000
3bd40000
3c050000
39400000
bbe40000
3b2e0000
3b1c0000
bb8f0000
bb400000
bbbd0000
3b1e0000
3ce70000
3d454000
3ca60000
3c824000
3c91c000
3d046000
3c4b0000
3d5d6000
3ce18000
3d3e6000
3d69e000
3d360000
3d438000
3cf50000
3c1f8000
3d114000
3d24a000
3bb80000
bc528000
3b8d0000
baec0000
bac00000
bc030000
bbfe0000
bb9a0000
3a100000
bbb10000
bc1c8000
3caac000
3d92d000
3d6a2000
3dcae000
3d90c000
3e054000
bd39a000
be665800
3e366800
3e9e7800
3e50f800
3d706000
3b540000
3c92c000
bd812000
bb4c0000
3d634000
3c770000
3c870000
3b140000
bb9c0000
3c098000
bb930000
ba480000
ba700000
3b9a0000
3b5c0000
3d3bc000
3e32e800
3e1c2000
3e1fe000
3e14e000
3e2f5000
3c5c8000
bc898000
bdc5e000
be0d9800
bcd28000
bc2d8000
3d416000
3ca84000
3e974c00
3e890000
3e05c800
bd058000
bcf40000
3ac40000
3c210000
ba780000
bc2b8000
babc0000
bc198000
bb0e0000
3c6d0000
3d1b6000
3e433800
3eb7c000
bd350000
3e781800
bdda7000
bda15000
3df42000
bd20c000
be43c000
be00c000
3d574000
beb8c400
bde7d000
bd712000
be7ba800
bd29a000
bd38c000
bdb70000
bcdb8000
bcec0000
3cd58000
bc590000
3bea0000
bb360000
bbf50000
3c180000
3d3b0000
3d57c000
3d0a4000
3d8b7000
bd70e000
3bc40000
3dfde000
bcd00000
bdd9b000
3db74000
3db0a000
be3d8000
3e76f800
bcf04000
3d8d7000
be9c8800
3d576000
bdedd000
bd262000
bdbc3000
3dbe7000
bc100000
3ced4000
bbf00000
ba880000
bc0c0000
bbe90000
bd380000
3dea8000
3d9ca000
3cf24000
3e3ec000
be263800
3da2a000
3a880000
3ddd7000
bd5d0000
3d37e000
bd1e4000
3d9c0000
be42d800
bcec4000
bd35a000
bea6bc00
bea1ec00
bebe2c00
3c5c0000
bdbb6000
3da24000
bd044000
bd7ec000
3a600000
3a9c0000
b9a00000
3b260000
b9400000
3e2dc800
3e37b800
bdee2000
3cac8000
3d804000
be2a4800
be055800
be187800
3e367000
be0f9000
bd622000
bdb02000
3df97000
bdaa5000
bd903000
3c9e0000
bce8c000
be9e4800
bdbf0000
bd932000
bbd20000
3dac5000
bd40e000
be2be800
3bfe0000
3ad00000
3cc88000
3d74c000
3e171000
3e62b800
3c018000
be14a800
3e15b800
bd170000
bd586000
3cf2c000
be93fc00
3cb64000
3cd10000
3d8b1000
bd8f4000
3cd60000
bd917000
bdf33000
be950c00
be47c000
3dafa000
bda36000
be22c800
bd16c000
be15e800
3d25e000
bbe50000
bbcd0000
39d00000
3dbc2000
bc390000
3e42c800
3e484800
3d1d0000
3e088000
be368000
3d52a000
be1e3000
3e580000
bb600000
3da71000
3edc9800
3e1ab000
be4d0800
beba5c00
bd236000
be82f400
be040000
bd620000
bd6e4000
bea18c00
be6c5800
bd922000
3da16000
3e10f800
bbe50000
3c2f8000
3d46a000
bb7a0000
be3db800
bdf6e000
be459800
bc84c000
be3bb000
bd384000
bd8f5000
bc1d0000
3da40000
3e150800
3e327000
bddce000
bb420000
3d0b4000
bd6d0000
3ca80000
bcdb0000
bead5800
3e5b1800
bd2a2000
be54b000
bdd4c000
bc1c8000
bd18e000
3b8b0000
3c098000
3e47e800
3d5cc000
3e9a3400
3de1b000
be2b8000
bde28000
3d574000
3ce5c000
3e232000
3e5da000
3db53000
3c8fc000
3e26e000
3cf70000
be11a800
bd724000
bdcc2000
bd95a000
bdace000
3df46000
3df9c000
bd831000
bef40c00
beb9e400
be826c00
bd76e000
bc0e0000
bb860000
3dbe8000
3cc40000
bc600000
3e7f8800
bdbcd000
3de9d000
3e31a000
bcef8000
be280800
3e630800
bdb45000
3e4d2000
3d53e000
bd69a000
bdd9b000
bd83a000
be1e3800
3d308000
bbac0000
bd31e000
3cc64000
3c190000
bd0c4000
be089000
be1b4800
3cb68000
3b4a0000
3c5d8000
3d33a000
3e117000
3e503800
3dd73000
3e939c00
3d2a6000
bde02000
3e71a000
bd843000
bc610000
3e1f4000
3e1a1000
3d1de000
bd406000
3eec2000
be37a000
3e8bec00
3dc84000
3d088000
be211000
3e04e000
3e555000
3ce48000
be40d000
bcb38000
3c608000
3a080000
bc2c0000
3d42a000
3e2de000
3e11d800
3cebc000
be653800
bea5b800
3e2c9000
3d576000
3e25e800
be3c3000
3da25000
be1ad000
bc7f8000
bd68e000
3c388000
be77d000
3e02d800
3dc29000
bdd7b000
3e08d800
3e0ad000
3e80f000
bde18000
bc630000
3d044000
ba700000
bc220000
b8000000
3c8d8000
3e8e9000
be5d1000
3bbc0000
3e017000
3b8e0000
beb5d000
bda10000
3d01e000
3c91c000
3e269800
3d8e3000
3e914000
3de7e000
3c908000
3e8f1400
bd282000
bd496000
3e108800
bd4ea000
3e857000
bd9de000
bd170000
3bc30000
3d95b000
3caa4000
bc210000
3b1a0000
3b120000
3e844c00
be1db000
be0b5800
3e422000
3ea68c00
3d22c000
3e11c800
bead0000
3e964800
bdf4f000
3d312000
bdf65000
be467000
bdd44000
bde12000
3eac2400
3dc7a000
3d3fc000
be706800
3dc90000
3c8b4000
3e95d800
3cd0c000
3e0be000
3d3ac000
3bf50000
b9e00000
ba100000
3e0d4800
3dad6000
beb0c400
3ddd9000
be23a800
bc208000
bd818000
3e051000
3dd53000
bdfad000
3e0db800
3ca48000
3e8eb400
3da42000
3e0ce800
bdf26000
bda64000
3e3bb000
3e9fc800
3caf8000
3ce98000
3de16000
3e43d800
3dc48000
3c390000
b9c00000
bb620000
3ad00000
bd8a8000
3da46000
beb8bc00
be27a800
3c4a8000
3e8c6c00
3d5da000
bd76e000
be087000
bd320000
3e2ea000
bd342000
bdee6000
bde61000
3dcbf000
be30b800
3e0b4800
3bfe0000
3df1a000
3e9c1c00
3d386000
3cb10000
3e05e800
3d48c000
3d052000
bc218000
3b220000
3b4a0000
bd827000
3e658800
3cc04000
bdc21000
3e358000
bec1b800
be160800
be142800
3d222000
bdfa2000
3e4c4800
3e9be000
bcd40000
3e3c0800
bdbb2000
3dee4000
3ccdc000
be8f4000
bd182000
bd504000
bdf72000
3d831000
3e119000
3cf98000
bb980000
38000000
bc408000
bbe90000
bd072000
3cecc000
3e6ca800
3dde9000
bda4a000
3cfb8000
3de54000
3e187800
bd034000
bda13000
be215800
3de73000
3cb78000
3e167000
3d356000
bd1b0000
bd8ed000
3db8a000
bea20800
3d5aa000
be873400
3da8a000
bd1fc000
3c924000
3bd30000
bc3e0000
3b890000
bc1c8000
bd25e000
be28a000
be7ba800
bd9c8000
bee48c00
3e145000
bdce9000
bd99c000
